{"version":"1.0","truncation":null,"padding":null,"added_tokens":[{"id":0,"content":"<|endoftext|>","single_word":false,"lstrip":false,"rstrip":false,"normalized":false,"special":true}],"normalizer":null,"pre_tokenizer":{"type":"ByteLevel","add_prefix_space":false,"trim_offsets":true,"use_regex":true},"post_processor":null,"decoder":{"type":"ByteLevel","add_prefix_space":true,"trim_offsets":true,"use_regex":true},"model":{"type":"BPE","dropout":null,"unk_token":null,"continuing_subword_prefix":null,"end_of_word_suffix":null,"fuse_unk":false,"byte_fallback":false,"ignore_merges":false,"vocab":{"<|endoftext|>":0,"!":1,"\"":2,"#":3,"$":4,"%":5,"&":6,"'":7,"(":8,")":9,"*":10,"+":11,",":12,"-":13,".":14,"/":15,"0":16,"1":17,"2":18,"3":19,"4":20,"5":21,"6":22,"7":23,"8":24,"9":25,":":26,";":27,"<":28,"=":29,">":30,"?":31,"@":32,"A":33,"B":34,"C":35,"D":36,"E":37,"F":38,"G":39,"H":40,"I":41,"J":42,"K":43,"L":44,"M":45,"N":46,"O":47,"P":48,"Q":49,"R":50,"S":51,"T":52,"U":53,"V":54,"W":55,"X":56,"Y":57,"Z":58,"[":59,"\\":60,"]":61,"^":62,"_":63,"`":64,"a":65,"b":66,"c":67,"d":68,"e":69,"f":70,"g":71,"h":72,"i":73,"j":74,"k":75,"l":76,"m":77,"n":78,"o":79,"p":80,"q":81,"r":82,"s":83,"t":84,"u":85,"v":86,"w":87,"x":88,"y":89,"z":90,"{":91,"|":92,"}":93,"~":94,"¡":95,"¢":96,"£":97,"¤":98,"¥":99,"¦":100,"§":101,"¨":102,"©":103,"ª":104,"«":105,"¬":106,"®":107,"¯":108,"°":109,"±":110,"²":111,"³":112,"´":113,"µ":114,"¶":115,"·":116,"¸":117,"¹":118,"º":119,"»":120,"¼":121,"½":122,"¾":123,"¿":124,"À":125,"Á":126,"Â":127,"Ã":128,"Ä":129,"Å":130,"Æ":131,"Ç":132,"È":133,"É":134,"Ê":135,"Ë":136,"Ì":137,"Í":138,"Î":139,"Ï":140,"Ð":141,"Ñ":142,"Ò":143,"Ó":144,"Ô":145,"Õ":146,"Ö":147,"×":148,"Ø":149,"Ù":150,"Ú":151,"Û":152,"Ü":153,"Ý":154,"Þ":155,"ß":156,"à":157,"á":158,"â":159,"ã":160,"ä":161,"å":162,"æ":163,"ç":164,"è":165,"é":166,"ê":167,"ë":168,"ì":169,"í":170,"î":171,"ï":172,"ð":173,"ñ":174,"ò":175,"ó":176,"ô":177,"õ":178,"ö":179,"÷":180,"ø":181,"ù":182,"ú":183,"û":184,"ü":185,"ý":186,"þ":187,"ÿ":188,"Ā":189,"ā":190,"Ă":191,"ă":192,"Ą":193,"ą":194,"Ć":195,"ć":196,"Ĉ":197,"ĉ":198,"Ċ":199,"ċ":200,"Č":201,"č":202,"Ď":203,"ď":204,"Đ":205,"đ":206,"Ē":207,"ē":208,"Ĕ":209,"ĕ":210,"Ė":211,"ė":212,"Ę":213,"ę":214,"Ě":215,"ě":216,"Ĝ":217,"ĝ":218,"Ğ":219,"ğ":220,"Ġ":221,"ġ":222,"Ģ":223,"ģ":224,"Ĥ":225,"ĥ":226,"Ħ":227,"ħ":228,"Ĩ":229,"ĩ":230,"Ī":231,"ī":232,"Ĭ":233,"ĭ":234,"Į":235,"į":236,"İ":237,"ı":238,"Ĳ":239,"ĳ":240,"Ĵ":241,"ĵ":242,"Ķ":243,"ķ":244,"ĸ":245,"Ĺ":246,"ĺ":247,"Ļ":248,"ļ":249,"Ľ":250,"ľ":251,"Ŀ":252,"ŀ":253,"Ł":254,"ł":255,"Ń":256,"Ġt":257,"he":258,"Ġa":259,"in":260,"Ġthe":261,"er":262,"on":263,"re":264,"ed":265,"Ġs":266,"Ġw":267,"Ġo":268,"nd":269,"at":270,"or":271,"en":272,"it":273,"Ġc":274,"Ġf":275,"is":276,"es":277,"ar":278,"Ġb":279,"an":280,"Ġof":281,"al":282,"Ġin":283,"ing":284,"as":285,"Ġp":286,"Ġand":287,"Ġto":288,"ic":289,"ro":290,"Ġm":291,"Ġd":292,"Ġh":293,"ion":294,"le":295,"ou":296,"Ġre":297,"il":298,"ĠT":299,"ent":300,"ĠS":301,"st":302,"Ġth":303,"ĠA":304,"el":305,"om":306,"Ġl":307,"Ġ=":308,"am":309,"ĠC":310,"Ġe":311,"ac":312,"Ġ1":313,"ad":314,"Ġn":315,"Ġwas":316,"ĠM":317,"ec":318,"Ġon":319,"ly":320,"ur":321,"et":322,"ol":323,"ĠB":324,"id":325,"im":326,"Ġg":327,"Ġfor":328,"ir":329,"ig":330,"iv":331,"ot":332,"ter":333,"ut":334,"Ġas":335,"us":336,"ow":337,"ĠThe":338,"ĠH":339,"ith":340,"ĠI":341,"ay":342,"'s":343,"Ġst":344,"ver":345,"her":346,"ation":347,"Ġwith":348,"ĠP":349,"Ġbe":350,"Ġthat":351,"ce":352,"ĠR":353,"Ġ\"":354,"un":355,"em":356,"Ġ2":357,"ch":358,"ĠD":359,"Ġwh":360,"Ġby":361,"th":362,"Ġ(":363,"ul":364,"Ġal":365,"Ġis":366,"ers":367,"Ġcon":368,"ĠW":369,"Ġat":370,"ĠF":371,"ct":372,"and":373,"os":374,"ĠG":375,"ain":376,"ĠL":377,"Ġan":378,"ĠN":379,"Ġhe":380,"ag":381,"Ġit":382,"rom":383,"av":384,"um":385,"est":386,"00":387,"Ġ19":388,"Ġhis":389,"ĠJ":390,"ri":391,"ĠE":392,"Ġr":393,"od":394,"Ġfrom":395,"ist":396,"ap":397,"Ġcom":398,"op":399,"Ġv":400,"ill":401,"ore":402,"Ġpro":403,"if":404,"up":405,"ld":406,"ew":407,"ere":408,"res":409,"ĠO":410,"igh":411,"ies":412,"art":413,"ber":414,"ard":415,"ort":416,"Ġde":417,"ak":418,"ich":419,"Ġwere":420,"ate":421,"all":422,"Ġse":423,"ab":424,"ant":425,"oc":426,"ud":427,"qu":428,"ong":429,"Ġex":430,"gh":431,"ear":432,"Ġch":433,"Ġor":434,"ess":435,"ated":436,"ity":437,"ip":438,"ive":439,"Ġpl":440,"ame":441,"Ġsh":442,"ĠK":443,"Ġhad":444,"ect":445,"se":446,"ack":447,"our":448,"ĠIn":449,"âĢ":450,"ast":451,"red":452,"ĠU":453,"Ġsu":454,"Ġwhich":455,"ment":456,"ge":457,"und":458,"ĠSt":459,"Ġk":460,"Ġare":461,"Ġle":462,"ov":463,"ian":464,"ial":465,"ell":466,"Ġnot":467,"ost":468,"ight":469,"Ġsp":470,"ord":471,"ia":472,"ust":473,"ary":474,"Ġtr":475,"ther":476,"ine":477,"pt":478,"rit":479,"oun":480,"ical":481,"ave":482,"Ġy":483,"pp":484,"cl":485,"Ġun":486,"ĠCh":487,"fter":488,"ould":489,"ff":490,"te":491,"irst":492,"Ġbut":493,"ish":494,"cc":495,"ous":496,"ions":497,"so":498,"The":499,"ra":500,"ide":501,"ure":502,"Ġcomp":503,"ub":504,"ĠV":505,"Ġwhe":506,"Ġar":507,"Ġro":508,"ie":509,"og":510,"ign":511,"Ġcont":512,"Ġher":513,"wo":514,"orm":515,"Ġfirst":516,"Ġ200":517,"ass":518,"ue":519,"Ġits":520,"Ġtheir":521,"âĢĵ":522,"ok":523,"ork":524,"out":525,"Ġint":526,"ater":527,"Ġ20":528,"Ġres":529,"ond":530,"Ġcl":531,"ome":532,"age":533,"Ġalso":534,"ry":535,"Ġab":536,"Ġad":537,"ire":538,"mer":539,"hed":540,"ĠHe":541,"pl":542,"per":543,"du":544,"Ġus":545,"ans":546,"ru":547,"low":548,"ime":549,"Ġper":550,"own":551,"Ġhave":552,"Ġ'":553,"ally":554,"Ġ3":555,"Ġwho":556,"ile":557,"ance":558,"ted":559,"ition":560,"Ġone":561,"ugh":562,"Ġsc":563,"Ġrec":564,"Ġtwo":565,"iz":566,"ree":567,"port":568,"ence":569,"ts":570,"uring":571,"Ġbeen":572,"ice":573,"Ġbec":574,"Ġhas":575,"Ġag":576,"ough":577,"Ġpart":578,"Ġapp":579,"ĠTh":580,"are":581,"ory":582,"ke":583,"ely":584,"Ġj":585,"Ġthis":586,"Ġen":587,"ations":588,"Ġover":589,"Ġdis":590,"Ġser":591,"clud":592,"ember":593,"ound":594,"ach":595,"ction":596,"Ġ18":597,"land":598,"Ġafter":599,"over":600,"Ġ201":601,"ace":602,"ark":603,"ric":604,"\".":605,"Ġdes":606,"act":607,"ade":608,"ĠAl":609,"Ġoff":610,"Ġplay":611,"Ġthey":612,"Ġother":613,"ib":614,"Ġte":615,"one":616,"ult":617,"Ġout":618,"ress":619,"Ġman":620,"ced":621,"ens":622,"ail":623,"Ġyear":624,"urn":625,"man":626,"Ġup":627,"Ġim":628,"ind":629,"Ġinclud":630,"ĠIt":631,"Ġwould":632,"ang":633,"wn":634,"we":635,"ep":636,"Ġinto":637,"),":638,"ĠY":639,"Ġpre":640,"ward":641,"ite":642,"Ġhim":643,"oin":644,"ates":645,"ren":646,"end":647,"able":648,"ĠUn":649,"Ġshe":650,"Ġwe":651,"ilm":652,"ased":653,"ever":654,"Ġtime":655,"ited":656,"amp":657,"Ġev":658,"old":659,"Ġatt":660,"ied":661,"ase":662,".\"":663,"ne":664,"ors":665,"ons":666,"les":667,"rough":668,"form":669,"oy":670,"Ġcomm":671,"Ġinter":672,"ount":673,"Ġ4":674,"aw":675,"ood":676,"ces":677,"Ġall":678,"Ġwork":679,"Ġmore":680,"ered":681,"ings":682,"vel":683,"ild":684,").":685,"Ġnew":686,"ick":687,"Ġbet":688,"ose":689,"vi":690,"ĠAr":691,"way":692,"inal":693,"ve":694,"Ġsec":695,"att":696,"Ġwhen":697,"Ġfilm":698,"ents":699,"ft":700,"ake":701,"iss":702,"fer":703,"aus":704,"Ġfe":705,"round":706,"reat":707,"rib":708,"rop":709,"\",":710,"gan":711,"Ġcons":712,"ved":713,"Ġrem":714,"ason":715,"hip":716,"orth":717,"Ġduring":718,"Ġdec":719,"ĠAn":720,"ubl":721,"ĠâĢ":722,"ĠMar":723,"Ġ5":724,"under":725,"Ġagain":726,"oth":727,"ath":728,"ween":729,"ix":730,"ob":731,"ollow":732,"Ġthem":733,"Ġpr":734,"Ġear":735,"Ġonly":736,"Ġthan":737,"Ġmost":738,"Ġgame":739,"fore":740,"ational":741,"ss":742,"ug":743,"tern":744,"Ġne":745,"Ġsup":746,"Ġret":747,"Ġabout":748,"outh":749,"Ġchar":750,"Ġcan":751,"ton":752,"In":753,"Ġbetween":754,"Ġsong":755,"ĠNew":756,"ict":757,"ron":758,"ĠSe":759,"Ġunder":760,"Ġlater":761,"Ġprodu":762,"hn":763,"aid":764,"als":765,"Ġthree":766,"Ġrele":767,"Ġact":768,"orld":769,"ook":770,"Ġthrough":771,"Ġcol":772,"Ġnum":773,"ank":774,"Ġwhile":775,"Ġkn":776,"meric":777,"Ġme":778,"Ġso":779,"000":780,"lect":781,"Ġ199":782,"Ġqu":783,"ters":784,"ĠEn":785,"ock":786,"Ġcent":787,"ral":788,"Ġend":789,"Ġrel":790,"ning":791,"Ġpos":792,"ular":793,"ating":794,"Ġfl":795,"Ġsub":796,"ener":797,"ck":798,"Ġass":799,"Ġacc":800,"ĠLe":801,"Ġwhere":802,"ames":803,"ision":804,"Ġreg":805,"che":806,"ived":807,"Ġsecond":808,"Ġver":809,"Ġpe":810,"bum":811,"Ġmade":812,"Ġbu":813,"ĠAmeric":814,"son":815,"Ġrecord":816,"Ġfollow":817,"ph":818,"ĠRe":819,"ĠCom":820,"ool":821,"Ġep":822,"ished":823,"ĠâĢĵ":824,"Ġform":825,"Ġfour":826,"Ġsome":827,"Ġdef":828,"Ġbefore":829,"ained":830,"Ġgro":831,"Ġam":832,"Ġmov":833,"Ġsuch":834,"Ġ6":835,"io":836,"ics":837,"Ġmus":838,"iel":839,"Ġseason":840,"Ġday":841,"ike":842,"Ġthere":843,"ode":844,"ual":845,"Ġspec":846,"ident":847,"Ġyears":848,"Ġwrit":849,"Ġsy":850,"Ġac":851,"ll":852,"Ġteam":853,"Ġalbum":854,"Ġ/":855,"..":856,"ily":857,"owever":858,"Ġlar":859,"Ġind":860,"pr":861,"ific":862,"ĠOn":863,"Ġused":864,"Ġinc":865,"the":866,"ury":867,"Ġent":868,"orn":869,"Ġsur":870,"ĠJo":871,"Ġbeing":872,"Ġpubl":873,"ten":874,"Ġepis":875,"aj":876,"Ġcall":877,"Ġ7":878,"velop":879,"Ġgr":880,"Ġthen":881,"ife":882,"Ġhigh":883,"other":884,"Ġloc":885,"Ġagainst":886,"ane":887,"air":888,"ĠThis":889,"Ġexp":890,"Ġinv":891,"Ġdo":892,"ious":893,"ĠSh":894,"ĊĊ":895,"Ġnumber":896,"Ġcharac":897,"Ġsever":898,"ale":899,"Ġshow":900,"ince":901,"ars":902,"Ġadd":903,"ject":904,"Ġbecame":905,"Ġpres":906,"ause":907,"Ġco":908,"19":909,"Ġset":910,"ek":911,"Ġrece":912,"ather":913,"ĠSp":914,"Ġbl":915,"Ġperform":916,"ĠâĢĶ":917,"ines":918,"Ġlead":919,"Ġsing":920,"ĠBrit":921,"ise":922,"Ġwell":923,"ĠUnited":924,"Ġbr":925,"ised":926,"ier":927,"Ġno":928,"Ġpol":929,"Ġfound":930,"ober":931,"Ġseries":932,"its":933,"Ġboth":934,"ik":935,"Ġincluding":936,"ower":937,"ement":938,"hen":939,"erm":940,"ĠAs":941,"ired":942,"ures":943,"ley":944,"Ġcap":945,"ert":946,"Ġback":947,"Ġship":948,"Ġmon":949,"ivers":950,"iet":951,"Ġ8":952,"overn":953,"uch":954,"ram":955,"pen":956,"Ġmain":957,"led":958,"az":959,"elf":960,"olog":961,"der":962,"ven":963,"Ġdid":964,"any":965,"ities":966,"Ġrep":967,"Ġ10":968,"iver":969,"ting":970,"ful":971,"Ġcre":972,"ĠAt":973,"ann":974,"Ġdevelop":975,"ared":976,"Ġgo":977,"ird":978,"tend":979,"ĠShe":980,"ĠEng":981,"irect":982,"ĠSc":983,"ty":984,"Ġsaid":985,"Ġepisode":986,"ĠCon":987,"ins":988,"Ġ9":989,"ute":990,"Ġ194":991,"ash":992,"Ġ17":993,"though":994,"Ġmat":995,"Ġstud":996,"ative":997,"Ġmany":998,"Ġem":999,"Ġmet":1000,"illion":1001,"hy":1002,"Ġlong":1003,"Ġseveral":1004,"Ġcontin":1005,"Ġcould":1006,"Ġmin":1007,"Ġorig":1008,"ah":1009,"ield":1010,"ouse":1011,"emb":1012,"anc":1013,"Ġdif":1014,"Ġcar":1015,"view":1016,"Ġinst":1017,"Ġ198":1018,"til":1019,"Ġdep":1020,"ually":1021,"ĠBr":1022,"Ġair":1023,"iam":1024,"Ġbro":1025,"Ġimp":1026,"ĠJohn":1027,"ross":1028,"erson":1029,"Ġpop":1030,"ued":1031,"ĠInd":1032,"my":1033,"Ġreturn":1034,"Ġbegan":1035,"ĠAust":1036,"Ġany":1037,"ĠCl":1038,"Ġob":1039,"ism":1040,"Ġwar":1041,"ĠWar":1042,"ople":1043,"chool":1044,"Ġdesc":1045,"oot":1046,"Ġcomple":1047,"ange":1048,"rap":1049,"aking":1050,"ccess":1051,"ern":1052,"Ġdesign":1053,"Ġsm":1054,"Ġsign":1055,"Ġfeat":1056,"Ġprov":1057,"Ġearly":1058,"ized":1059,"Ġtrans":1060,"eb":1061,"ided":1062,"Ġknown":1063,"fl":1064,"Ġmusic":1065,"Ġuntil":1066,"ĠFr":1067,"Ġest":1068,"ĠAmerican":1069,"Ġart":1070,"imes":1071,"une":1072,"Ġnear":1073,"ists":1074,"ey":1075,"stem":1076,"ĠAfter":1077,"ured":1078,"Ġdist":1079,"Ġeff":1080,"xt":1081,"Ġresp":1082,"Ġ12":1083,"ially":1084,"Ġbel":1085,"Ġreleased":1086,"ution":1087,"Ġpass":1088,"Ġown":1089,"Ġfin":1090,"ments":1091,"Ġ15":1092,"Ġrun":1093,"osed":1094,"Ġcrit":1095,"sh":1096,"ĠZ":1097,"Ġcalled":1098,"Ġ196":1099,"sp":1100,"ium":1101,"Ġ197":1102,"vent":1103,"ĠWh":1104,"ĠCol":1105,"ax":1106,"ĠMay":1107,"erman":1108,"enn":1109,"Ġmillion":1110,"Ġdown":1111,"Ġdirect":1112,"Ġalong":1113,"ĠBl":1114,"ull":1115,"Ġgroup":1116,"Ġoffic":1117,"ajor":1118,"cept":1119,"Ġthese":1120,"ĠBritish":1121,"Ġfam":1122,"ger":1123,"Ġmay":1124,"ains":1125,"Ġdisc":1126,"Ġmil":1127,"Ġgener":1128,"ris":1129,"erv":1130,"gest":1131,"ĠDe":1132,"Ġopen":1133,"Ã©":1134,"Ġmod":1135,"Ġhist":1136,"Ġland":1137,"ptember":1138,"Ġsuccess":1139,"ĠUS":1140,"ugust":1141,"ets":1142,"ink":1143,"ible":1144,"Ġgovern":1145,"ĠStates":1146,"Ġsim":1147,"Ġsame":1148,"wards":1149,"Ġ16":1150,"ĠSeptember":1151,"Ġ$":1152,"aced":1153,"ĠAugust":1154,"amed":1155,"Ġdescrib":1156,"Ġpeople":1157,"Ġuse":1158,"Ġcount":1159,"aining":1160,"ĠWorld":1161,"Ġcharacter":1162,"Ġpoin":1163,"Ġgu":1164,"Ġbecause":1165,"Ġattack":1166,"Ġstr":1167,"ner":1168,"Ġoper":1169,"aving":1170,"Ġkm":1171,"ues":1172,"uc":1173,"Ġserv":1174,"Ġstart":1175,"els":1176,"ĠAd":1177,"Ġaround":1178,"ruct":1179,"Ġtook":1180,"ped":1181,"ĠJu":1182,"Ġconst":1183,"Ġthough":1184,"ove":1185,"Ġbatt":1186,"Ġvi":1187,"Ġfollowing":1188,"Ġocc":1189,"Ġsupport":1190,"ĠOct":1191,"ĠAustral":1192,"uss":1193,"Ġsystem":1194,"Ġappear":1195,"ret":1196,"ĠNov":1197,"yp":1198,"ives":1199,"ene":1200,"Ġed":1201,"ants":1202,"Ġreceived":1203,"Ġwin":1204,"ĠIs":1205,"ility":1206,"Ġconsid":1207,"ĠGerman":1208,"ĠPl":1209,"ically":1210,"ex":1211,"Ġprom":1212,"Ġsix":1213,"ĠOctober":1214,"Ġann":1215,"Ġ11":1216,"Ġele":1217,"Ġnorth":1218,"ĠBe":1219,"ĠHowever":1220,"Ġdr":1221,"anu":1222,"oss":1223,"Ġeach":1224,"ĠCar":1225,"ĠTr":1226,"get":1227,"uth":1228,"ox":1229,"Ġbuild":1230,"ina":1231,"med":1232,"ately":1233,"ĠQ":1234,"Ġstate":1235,"ĠDec":1236,"ĠYork":1237,"ĠAll":1238,"Ġvar":1239,"Ġarea":1240,"iving":1241,"Ġhead":1242,"Ġreport":1243,"Ġsmall":1244,"Ġext":1245,"tle":1246,"ĠPro":1247,"Ġever":1248,"Ġwill":1249,"ored":1250,"ling":1251,"Ġ195":1252,"ording":1253,"ians":1254,"Ġpartic":1255,"gin":1256,"ĠFor":1257,"Ġ193":1258,"Ġfinal":1259,"Ġconc":1260,"ĠNorth":1261,"Ġcity":1262,"ĠJune":1263,"ission":1264,"ection":1265,"Ġmar":1266,"ĠThey":1267,"Ġpublic":1268,"Ġmajor":1269,"Ġfive":1270,"urch":1271,"Ġband":1272,"esp":1273,"ĠJuly":1274,"by":1275,"ient":1276,"raft":1277,"Ġlife":1278,"Ġrest":1279,"por":1280,"Ġref":1281,"ĠNovember":1282,"oard":1283,"pril":1284,"ĠKing":1285,"Ġsingle":1286,"ried":1287,"lish":1288,"omet":1289,"Ġsince":1290,"Ġmed":1291,"Ġworld":1292,"inc":1293,"Ġcontro":1294,"ected":1295,"Ġweek":1296,"ural":1297,"ional":1298,"aim":1299,"Ġlike":1300,"ĠComm":1301,"ĠApril":1302,"Ġ13":1303,"ively":1304,"Ġdet":1305,"ilt":1306,"20":1307,"ĠMarch":1308,"ont":1309,"side":1310,"Ġlast":1311,"Ġallow":1312,"vious":1313,"Ġhel":1314,"idge":1315,"ĠHar":1316,"Ġjust":1317,"ague":1318,"Ġturn":1319,"Ġarr":1320,"rist":1321,"ales":1322,"ĠWill":1323,"eng":1324,"Ġpo":1325,"row":1326,"empt":1327,"Ġdiffer":1328,"ats":1329,"ified":1330,"Ġleft":1331,"Ġlarge":1332,"ble":1333,"Ġcare":1334,"Ġadv":1335,"ĠMc":1336,"ĠPr":1337,"avy":1338,"ches":1339,"Ġvers":1340,"ĠGr":1341,"ined":1342,"rote":1343,"Ġbook":1344,"Ġincre":1345,"ĠEd":1346,"ĠCan":1347,"ple":1348,"Ġ14":1349,"aged":1350,"Ġdue":1351,"ĠSouth":1352,"anuary":1353,"Ġevent":1354,"Ġschool":1355,"Ġincluded":1356,"ĠDecember":1357,"ball":1358,"ograp":1359,"Ġline":1360,"Ġmuch":1361,"Ġsouth":1362,"Ġanother":1363,"ony":1364,"Ġappro":1365,"Ġplayed":1366,"Ġ191":1367,"ĠJanuary":1368,"ĠBro":1369,"ĠGe":1370,"ney":1371,"Ġwhat":1372,"apan":1373,"Ġcentury":1374,"Ġsl":1375,"ages":1376,"alf":1377,"Ġshort":1378,"ently":1379,"ĠOr":1380,"Ġexpl":1381,"Ġif":1382,"Ġname":1383,"Ġgovernment":1384,"Ġ[":1385,"Ġph":1386,"Ġdeath":1387,"ience":1388,"Ġcamp":1389,"Ġport":1390,"Ġwrote":1391,"Ġwon":1392,"Ġthird":1393,"ĠEu":1394,"oad":1395,"ideo":1396,"ĠII":1397,"Ġchild":1398,"ody":1399,"ĠPh":1400,"Ġplace":1401,"Ġmonth":1402,"Ġtit":1403,"hes":1404,"ital":1405,"Ġprog":1406,"Ġprot":1407,"Ġclass":1408,"Ġkill":1409,"ott":1410,"Ġreview":1411,"cy":1412,"Ġeng":1413,"Ġtrack":1414,"oman":1415,"Ġhome":1416,"Ġpower":1417,"ĠBy":1418,"Ġvis":1419,"Ġrequ":1420,"Ġdescribed":1421,"Ġprevious":1422,"ean":1423,"ĠJapan":1424,"Ġbre":1425,"Ġfamily":1426,"Ġelect":1427,"Ġperson":1428,"Ġcour":1429,"aff":1430,"Ġlit":1431,"urther":1432,"iod":1433,"iven":1434,"ilar":1435,"Ġled":1436,"Ġstory":1437,"embers":1438,"ĠMan":1439,"ged":1440,"reen":1441,"Ġnamed":1442,"ister":1443,"ster":1444,"Ġmen":1445,"omin":1446,"iversity":1447,"ness":1448,"Ġattempt":1449,"ays":1450,"itions":1451,"Ġmake":1452,"ps":1453,"Ġdem":1454,"ivision":1455,"ior":1456,"rench":1457,"Ġeven":1458,"Ġright":1459,"ached":1460,"Ġopp":1461,"Ġrepl":1462,"ival":1463,"Ġgames":1464,"Ġleg":1465,"mp":1466,"ĠMus":1467,"ebru":1468,"eter":1469,"self":1470,"Ġbelie":1471,"Ġdam":1472,"ĠGu":1473,"'t":1474,"ebruary":1475,"Ġcommand":1476,"Ġthose":1477,"ĠÂ":1478,"Ġposs":1479,"ances":1480,"riend":1481,"Ġnext":1482,"Ġspecies":1483,"line":1484,"rodu":1485,"Ġgun":1486,"ature":1487,"aken":1488,"Ġstill":1489,"oci":1490,"ĠFebruary":1491,"ched":1492,"ences":1493,"Ġiss":1494,"Ġpar":1495,"au":1496,"Ġoriginal":1497,"Ġorgan":1498,"ĠEurop":1499,"ead":1500,"...":1501,"Ġeffect":1502,"Ġaddition":1503,"Ġbest":1504,"Ġjoin":1505,"ĠFl":1506,"Ġtop":1507,"ĠNational":1508,"alk":1509,"Ġcapt":1510,"br":1511,"Ġwithin":1512,"Ġmembers":1513,"rew":1514,"Ġperiod":1515,"Ġdeb":1516,"Ġwater":1517,"augh":1518,"Ġlist":1519,"Ġexper":1520,"Ġview":1521,"af":1522,"uted":1523,"Ġlate":1524,"tended":1525,"na":1526,"Ġvery":1527,"Ġsold":1528,"to":1529,"sc":1530,"Ġmark":1531,"ĠHis":1532,"ech":1533,"Ġheld":1534,"Ġdest":1535,"yl":1536,"Ġcaus":1537,"ropical":1538,"ĠAnd":1539,"ides":1540,"Ġstorm":1541,"Ġmatch":1542,"Ġrole":1543,"ĠChrist":1544,"Ġnow":1545,"Ġvideo":1546,"ĠFrench":1547,"Ġinfl":1548,"lev":1549,"Ġconf":1550,"Ġrelease":1551,"Ġinit":1552,"Ġalthough":1553,"Ġdays":1554,"Ġformer":1555,"Ġresult":1556,"Ġcame":1557,"Ġcur":1558,"Ġbuilt":1559,"oon":1560,"ulation":1561,"Ġterm":1562,"Ġhand":1563,"ption":1564,"omb":1565,"ĠPar":1566,"Ġcover":1567,"ĠBar":1568,"Ġtri":1569,"let":1570,"Ġmid":1571,"Ġhowever":1572,"ham":1573,"aster":1574,"itary":1575,"min":1576,"Ġspe":1577,"app":1578,"Ġpresent":1579,"Ġpolit":1580,"atic":1581,"Ġgreat":1582,"Ġ30":1583,"On":1584,"ense":1585,"Ġfew":1586,"akes":1587,"Ġreal":1588,"Ġwind":1589,"Ġcr":1590,"Ġtown":1591,"Ġestab":1592,"arm":1593,"ĠWest":1594,"Ġcontinued":1595,"elt":1596,"Ġmy":1597,"Ġprop":1598,"gy":1599,"Ġ2010":1600,"ator":1601,"ĠWilliam":1602,"read":1603,"cent":1604,"tal":1605,"Ġlocal":1606,"ruction":1607,"par":1608,"ĠMin":1609,"Ġold":1610,"Ġstand":1611,"ĠX":1612,"Ġpost":1613,"Ġtw":1614,"estern":1615,"Ġoften":1616,"omen":1617,"Ġbased":1618,"Ġsimilar":1619,"Ġamong":1620,"Ġclaim":1621,"ung":1622,"Ġyou":1623,"Ġ&":1624,"reet":1625,"Ġav":1626,"10":1627,"ops":1628,"uck":1629,"ese":1630,"me":1631,"Ġ25":1632,"Ġsk":1633,"ology":1634,"ĠEngland":1635,"ves":1636,"Ġsug":1637,"Ġdifferent":1638,"con":1639,"ĠAir":1640,"ract":1641,"Ġfurther":1642,"urs":1643,"ĠWhen":1644,"Ġsent":1645,"Ġhum":1646,"Ġway":1647,"ĠGeor":1648,"ison":1649,"Ġbeh":1650,"ĠDuring":1651,"ards":1652,"Ġconsidered":1653,"Ġcareer":1654,"ĠAm":1655,"Ġtake":1656,"Ġdel":1657,"ices":1658,"ler":1659,"gr":1660,"ampions":1661,"Ġfre":1662,"Ġ192":1663,"Ġ2008":1664,"Ġside":1665,"ying":1666,"Ġ2009":1667,"ots":1668,"uthor":1669,"Ġequ":1670,"Ġhaving":1671,"ĠEar":1672,"ĠHer":1673,"Ġmoved":1674,"ĠPark":1675,"ĠChar":1676,"esc":1677,"resent":1678,"ĠCity":1679,"Ġ2011":1680,"Ġroad":1681,"vers":1682,"ĠMich":1683,"ering":1684,"ront":1685,"Ġbecome":1686,"Ġposition":1687,"less":1688,"Ġappe":1689,"ford":1690,"Ġversion":1691,"ondon":1692,"Ġhistory":1693,"ones":1694,"Ġmag":1695,"Ġplan":1696,"ĠRec":1697,"com":1698,"ize":1699,"Ġcor":1700,"ald":1701,"Ġwithout":1702,"yle":1703,"Ġcast":1704,"ĠCent":1705,"atter":1706,"ĠEnglish":1707,"aul":1708,"Ġevery":1709,"ĠCount":1710,"ai":1711,"ned":1712,"Ġsuggest":1713,"ĠCo":1714,"Ġinvol":1715,"Ġclub":1716,"Ġfore":1717,"aying":1718,"Ġel":1719,"ef":1720,"rest":1721,"ery":1722,"ĠLondon":1723,"Ġtyp":1724,"Ġproduction":1725,"Ġinflu":1726,"utes":1727,"Ġarm":1728,"Ġannoun":1729,"ĠBatt":1730,"ape":1731,"ĠEl":1732,"iqu":1733,"Ġcommun":1734,"Ġhouse":1735,"sequ":1736,"ĠDav":1737,"ĠAng":1738,"craft":1739,"Ġstat":1740,"iety":1741,"Ġsound":1742,"iment":1743,"Ġplayer":1744,"Ġbas":1745,"ington":1746,"Ġ2007":1747,"Ġlaw":1748,"Ġhalf":1749,"ĠRiver":1750,"ille":1751,"Ġstrong":1752,"day":1753,"Ġgiven":1754,"rent":1755,"Ġrefer":1756,"Ġless":1757,"Ġant":1758,"anted":1759,"oll":1760,"Ġ2012":1761,"Ġgave":1762,"Ġeast":1763,"ĠUniversity":1764,"ĠNo":1765,"cess":1766,"ailed":1767,"ories":1768,"aly":1769,"Ġdefe":1770,"Ġtro":1771,"atch":1772,"Ġreturned":1773,"ĠWe":1774,"Ġorder":1775,"200":1776,"Ġrad":1777,"Ġaff":1778,"Ġimport":1779,"roy":1780,"ĠThere":1781,"isc":1782,"50":1783,"ae":1784,"Ġtrad":1785,"yn":1786,"ĠCanad":1787,"Ġwritten":1788,"Ġvict":1789,"Ġlow":1790,"ĠCal":1791,"ges":1792,"aun":1793,"ention":1794,"Ġfact":1795,"Ġchang":1796,"ours":1797,"Ġcompany":1798,"Ġwest":1799,"Ġtotal":1800,"off":1801,"Ġwent":1802,"Ġ100":1803,"Ġsoc":1804,"Ġcomb":1805,"Ġnever":1806,"ably":1807,"levision":1808,"Ġtem":1809,"Ġreported":1810,"used":1811,"aign":1812,"Ġhig":1813,"Ġstated":1814,"Ġke":1815,"Ġfire":1816,"Ġpublished":1817,"err":1818,"Ġprogram":1819,"Ġcountry":1820,"Ġfind":1821,"echn":1822,"Ġyoun":1823,"Ġcontrol":1824,"ĠHigh":1825,"Ġinclude":1826,"urric":1827,"Ġorigin":1828,"ccording":1829,"18":1830,"Ġlost":1831,"Ġfriend":1832,"Ġlevel":1833,"ief":1834,"Ġcommon":1835,"Ġgood":1836,"Ġ24":1837,"ring":1838,"aren":1839,"Ġcompet":1840,"Ġpat":1841,"Ġforces":1842,"Ġ21":1843,"Ġpoint":1844,"ument":1845,"raw":1846,"Ġproject":1847,"Ġparticular":1848,"Ġprof":1849,"Ġ190":1850,"tain":1851,"Ġships":1852,"Ġlight":1853,"ush":1854,"irc":1855,"most":1856,"iness":1857,"Ġneed":1858,"Ġbuilding":1859,"ploy":1860,"mit":1861,"work":1862,"Ġusing":1863,"ĠOne":1864,"osp":1865,"Ġperformance":1866,"Ġord":1867,"Ġproduced":1868,"eneral":1869,"Ġpopular":1870,"lear":1871,"Ġide":1872,"oyal":1873,"Ġrecorded":1874,"Ġtimes":1875,"Ġshould":1876,"Ġhimself":1877,"Ġservice":1878,"Ġinterest":1879,"ampionship":1880,"ising":1881,"Ġpress":1882,"Ġauthor":1883,"Ġmilitary":1884,"Ġfather":1885,"Ġsongs":1886,"outher":1887,"Ġbattle":1888,"ords":1889,"rick":1890,"Ġsit":1891,"ensive":1892,"Ġanim":1893,"ĠEx":1894,"Ġcritic":1895,"Ġbus":1896,"Ġnort":1897,"alth":1898,"Ġdevelopment":1899,"quad":1900,"itive":1901,"ĠAb":1902,"ases":1903,"Ġlim":1904,"ĠAustralia":1905,"olution":1906,"eder":1907,"play":1908,"Ġeight":1909,"Ġten":1910,"ĠSw":1911,"outhern":1912,"Ġfr":1913,"ither":1914,"ĠAss":1915,"Ġread":1916,"cer":1917,"Ġhow":1918,"Ġche":1919,"Ġinf":1920,"Ġ2006":1921,"ublic":1922,"eth":1923,"acy":1924,"Ġfun":1925,"ĠAf":1926,"Ġft":1927,"30":1928,"astern":1929,"ĠSec":1930,"Ġremained":1931,"ĠThese":1932,"Ġcross":1933,"Ġmaking":1934,"ĠPol":1935,"ries":1936,"ĠCor":1937,"Ġsw":1938,"Ġfoot":1939,"Ġcharacters":1940,"ĠSm":1941,"dom":1942,"Ġrepresent":1943,"aur":1944,"Ġmonths":1945,"ĠArmy":1946,"Ġground":1947,"ĠTe":1948,"ream":1949,"reg":1950,"Ġgl":1951,"fic":1952,"ĠState":1953,"ks":1954,"ĠJack":1955,"of":1956,"urricane":1957,"Ġcampaign":1958,"isted":1959,"Ġtitle":1960,"ĠSy":1961,"Ġnational":1962,"ration":1963,"Ġ2013":1964,"lands":1965,"Ġste":1966,"Ġsuff":1967,"ency":1968,"Ġget":1969,"Ġchildren":1970,"Ġsum":1971,"Ġchart":1972,"bs":1973,"ĠNe":1974,"ael":1975,"Ġdied":1976,"Ġgen":1977,"Ġtour":1978,"Ġsomet":1979,"Ġins":1980,"Ġacross":1981,"ression":1982,"hern":1983,"Ġintrodu":1984,"ole":1985,"Ġsignific":1986,"Ġrelations":1987,"Ġpromot":1988,"Ġdeveloped":1989,"Ġaway":1990,"Ġ22":1991,"lege":1992,"Ġpra":1993,"ĠPres":1994,"ĠLeague":1995,"ĠDr":1996,"alt":1997,"ĠComp":1998,"Ġ0":1999,"Ġson":2000,"ĠDivision":2001,"ĠAlthough":2002,"Ġaircraft":2003,"Ġnoted":2004,"ĠJames":2005,"Ġofficial":2006,"Ġhistor":2007,"Ġannounced":2008,"Ġreached":2009,"Ġfelt":2010,"Ġfav":2011,"ĠGl":2012,"Ġareas":2013,"Ġintern":2014,"Ġfield":2015,"ressed":2016,"field":2017,"ĠMe":2018,"Ġdestroy":2019,"Ġforce":2020,"ĠCounty":2021,"Ġtelevision":2022,"Ġfac":2023,"imately":2024,"Ġstation":2025,"Ġsuccessful":2026,"cast":2027,"Ġcoun":2028,"ĠâĢĻ":2029,"Ġcreated":2030,"Ġvarious":2031,"ĠAmerica":2032,"Ġred":2033,"Ġnight":2034,"Ġfollowed":2035,"iber":2036,"ĠRoad":2037,"Ġ189":2038,"iting":2039,"Ġseen":2040,"ĠStreet":2041,"ization":2042,"ope":2043,"ality":2044,"Ġperformed":2045,"Ġ23":2046,"Ġserved":2047,"Ġplayers":2048,"elling":2049,"ĠWith":2050,"ĠReg":2051,"ĠGeneral":2052,"Ġval":2053,"abor":2054,"Ġtrav":2055,"lin":2056,"Ġpolitical":2057,"ĠRep":2058,"Ġbegin":2059,"ana":2060,"Ġcond":2061,"Ġearl":2062,"Ġaver":2063,"Ġfle":2064,"idence":2065,"wh":2066,"head":2067,"ĠMor":2068,"duct":2069,"bor":2070,"Ġstar":2071,"Ġconv":2072,"Ġbo":2073,"Ġbar":2074,"Ġprim":2075,"ĠRuss":2076,"rict":2077,"here":2078,"Ġprocess":2079,"lished":2080,"Ġput":2081,"Ġkilled":2082,"St":2083,"Ġaud":2084,"Ġthroughout":2085,"Ġrev":2086,"Ġcost":2087,"Ġfull":2088,"ett":2089,"Ġrock":2090,"Ġdiv":2091,"epend":2092,"Ġable":2093,"Ġtaken":2094,"ĠWhile":2095,"Ġtest":2096,"ĠJapanese":2097,"ecut":2098,"ertain":2099,"Ġcult":2100,"Ġhelp":2101,"ĠSup":2102,"Ġagre":2103,"ĠMon":2104,"urg":2105,"ray":2106,"ground":2107,"ĠEast":2108,"lected":2109,"umb":2110,"Ġbecom":2111,"ways":2112,"Ġnon":2113,"Ġtropical":2114,"Ġdiscover":2115,"Ġtoo":2116,"Ġmeet":2117,"irl":2118,"ĠSim":2119,"Ġlet":2120,"oice":2121,"Ġsol":2122,"ĠMad":2123,"Ġwid":2124,"Ġsignificant":2125,"ĠAccording":2126,"hel":2127,"Ġblack":2128,"enced":2129,"ĠSte":2130,"Ġcy":2131,"aval":2132,"ination":2133,"cil":2134,"Ġfight":2135,"Ġcop":2136,"Ġappeared":2137,"ĠPhil":2138,"Ġstruct":2139,"ius":2140,"Ġentire":2141,"Ġmm":2142,"Ġmiles":2143,"Ġtechn":2144,"ĠHen":2145,"Ġthought":2146,"Ġident":2147,"hing":2148,"ĠGeorge":2149,"Ġlittle":2150,"Ġpoints":2151,"odes":2152,"ought":2153,"Ġbroad":2154,"Ġcoast":2155,"ask":2156,"Ġfront":2157,"uk":2158,"urb":2159,"Ġaward":2160,"Ġage":2161,"idd":2162,"for":2163,"Ġobs":2164,"ript":2165,"Ġroute":2166,"ĠRober":2167,"Ġspecial":2168,"Ġvol":2169,"Ġ2014":2170,"Ġcoll":2171,"Ġfem":2172,"ms":2173,"Ġwriting":2174,"Ġdecl":2175,"ivil":2176,"Ġrank":2177,"iers":2178,"men":2179,"Ġbody":2180,"Ġimpro":2181,"ĠBill":2182,"ĠSer":2183,"Ġactiv":2184,"now":2185,"ĠAustralian":2186,"Ġwomen":2187,"Ġ27":2188,"Ġdecided":2189,"Ġfeatures":2190,"Ġcaused":2191,"Ġlook":2192,"aves":2193,"ators":2194,"Ġstarted":2195,"iron":2196,"iec":2197,"Ġseven":2198,"board":2199,"omp":2200,"Ġdoes":2201,"hys":2202,"tr":2203,"Ġeventually":2204,"ogn":2205,"ĠAct":2206,"Ġ2005":2207,"hic":2208,"Ġestablished":2209,"itar":2210,"ĠAfric":2211,"int":2212,"Ġ28":2213,"15":2214,"Ġfeet":2215,"ivid":2216,"Ġer":2217,"12":2218,"conom":2219,"lection":2220,"Ġvot":2221,"Ġmember":2222,"ample":2223,"ament":2224,"ĠSch":2225,"ĠMed":2226,"Ġtoget":2227,"Ġtogether":2228,"reek":2229,"Ġadded":2230,"Ġhit":2231,"Ġarch":2232,"igned":2233,"Ġpain":2234,"ades":2235,"Ġgeneral":2236,"ara":2237,"Ġnov":2238,"rought":2239,"aces":2240,"emy":2241,"Ġonce":2242,"ĠHouse":2243,"Ġlocated":2244,"60":2245,"Ġinstead":2246,"Ġarg":2247,"ĠRoyal":2248,"Ġconn":2249,"orts":2250,"Ġhold":2251,"Ġmanag":2252,"ects":2253,"Ġformed":2254,"Ġtre":2255,"amb":2256,"Ġenc":2257,"ĠRich":2258,"Ġcrew":2259,"Ġrace":2260,"ĠPart":2261,"cing":2262,"Ġsaw":2263,"arch":2264,"oney":2265,"Ġgrow":2266,"Ġimportant":2267,"Th":2268,"Ġcirc":2269,"Ġcompleted":2270,"Ġpri":2271,"ells":2272,"Ġstri":2273,"ĠPer":2274,"ee":2275,"ata":2276,"Ġrange":2277,"Ġmix":2278,"Ġesc":2279,"Ġredu":2280,"Ġsee":2281,"Ġ50":2282,"Ġball":2283,"Ġpopulation":2284,"wood":2285,"Ġinvest":2286,"ĠEm":2287,"Ġcut":2288,"Ġmater":2289,"Ġ40":2290,"Ġask":2291,"stit":2292,"Ġsurv":2293,"Ġothers":2294,"asing":2295,"ĠIntern":2296,"ĠDavid":2297,"ceed":2298,"Ġoccur":2299,"ĠHist":2300,"ĠQu":2301,"aps":2302,"ements":2303,"west":2304,"Ġvoc":2305,"Ġcomment":2306,"Ġmodern":2307,"Ġ26":2308,",\"":2309,"Ġstyle":2310,"medi":2311,"gg":2312,"nder":2313,"Ġmot":2314,"go":2315,"ficult":2316,"Ġbehind":2317,"ĠPe":2318,"bert":2319,"ĠIndian":2320,"Ġguns":2321,"Ġworks":2322,"Ġfall":2323,"Ġopened":2324,"Ã¡":2325,"Ġbase":2326,"anch":2327,"unk":2328,"Ġlive":2329,"Ġworked":2330,"Ġren":2331,"Ġlik":2332,"Ġsubsequ":2333,"Ġrather":2334,"Ġproble":2335,"Ġloss":2336,"Ġsite":2337,"ĠSan":2338,"istic":2339,"Ġrelationship":2340,"Ġweeks":2341,"Ġdifficult":2342,"oint":2343,"Ġconstruction":2344,"Ġpred":2345,"sk":2346,"Ġclose":2347,"Ġaction":2348,"ĠSchool":2349,"ĠFrance":2350,"Ġknow":2351,"osition":2352,"Ġmiss":2353,"Ġbomb":2354,"Ġdamage":2355,"Ġstage":2356,"hest":2357,"ica":2358,"After":2359,"ened":2360,"year":2361,"Ġbrother":2362,"ills":2363,"Ġlack":2364,"Ġfif":2365,"Ġpract":2366,"ĠBlack":2367,"Ġsepar":2368,"Ġvill":2369,"Ġpeak":2370,"omm":2371,"Ġassoci":2372,"Ġinj":2373,"Ġupon":2374,"Ġyoung":2375,"Ġra":2376,"Ġinsp":2377,"Ġhost":2378,"ĠEurope":2379,"ĠWash":2380,"Ġ188":2381,"Ġoriginally":2382,"Ġprovided":2383,"Ġreve":2384,"Ġheavy":2385,"Ġinform":2386,"Ġscored":2387,"ellow":2388,"Ġmi":2389,"Ġleading":2390,"angu":2391,"ming":2392,"Ġmer":2393,"ological":2394,"Ġclos":2395,"Ġaccept":2396,"Ġcase":2397,"oid":2398,"Ġreb":2399,"Ġscene":2400,"Ġwhite":2401,"ula":2402,"ule":2403,"ĠNor":2404,"Ġfeatured":2405,"ama":2406,"Ġindivid":2407,"Ġbrought":2408,"uff":2409,"Ġresul":2410,"Ġallowed":2411,"Ġfourth":2412,"ĠBattle":2413,"Ġround":2414,"Ġ2015":2415,"Ġmor":2416,"Ġleast":2417,"Ġtowards":2418,"ĠPort":2419,"Ġparty":2420,"Ġgoal":2421,"Ġregion":2422,"Ġengine":2423,"azine":2424,"Ġmother":2425,"antic":2426,"ino":2427,"Ġplaying":2428,"Ġtroops":2429,"oor":2430,"11":2431,"Ġmult":2432,"Ġbusiness":2433,"Ġalmost":2434,"Ġwanted":2435,"Ġcritics":2436,"espite":2437,"ĠHenry":2438,"Ġlaun":2439,"be":2440,"Ġavail":2441,"ĠMusic":2442,"ĠMichael":2443,"rey":2444,"earch":2445,"ĠCour":2446,"Ġexample":2447,"Ġworking":2448,"Ġindust":2449,"Ġquick":2450,"ĠVir":2451,"Ġruns":2452,"Ġking":2453,"Ġeither":2454,"str":2455,"co":2456,"Ġmaterial":2457,"ude":2458,"aut":2459,"Ġhuman":2460,"Ġrespect":2461,"Ġaverage":2462,"ential":2463,"Ġtradition":2464,"itch":2465,"lex":2466,"Ġarmy":2467,"Ġreach":2468,"val":2469,"ĠWashington":2470,"Ġrecogn":2471,"ĠRou":2472,"Ġplaced":2473,"Ġestim":2474,"Ġ2004":2475,"Ġhon":2476,"ĠTo":2477,"Ġve":2478,"ength":2479,"Ġeconom":2480,"leg":2481,"quadron":2482,"ĠPresident":2483,"Ġcreat":2484,"enes":2485,"ourn":2486,"ollowing":2487,"ĠOther":2488,"Ġjoined":2489,"Ġfar":2490,"Ġoffice":2491,"ving":2492,"ĠQue":2493,"key":2494,"Ġprofess":2495,"Ġrail":2496,"Ġfoc":2497,"Ġsour":2498,"Ġwife":2499,"Ġneg":2500,"like":2501,"Ġce":2502,"Ġproper":2503,"ze":2504,"ĠGro":2505,"Ġevents":2506,"Ġ29":2507,"ĠRed":2508,"40":2509,"chie":2510,"Ġbelieved":2511,"ĠCup":2512,"ville":2513,"ĠMil":2514,"Ġparticip":2515,"fall":2516,"inn":2517,"artment":2518,"Ġreplaced":2519,"iction":2520,"Ġcurrent":2521,"Ġmph":2522,"Ġvictory":2523,"ĠMy":2524,"Ġmass":2525,"arn":2526,"Ġgenerally":2527,"ĠCap":2528,"Ġfig":2529,"Ġsoon":2530,"ĠAg":2531,"ĠHol":2532,"ĠHall":2533,"uel":2534,"rison":2535,"erous":2536,"ification":2537,"ĠBel":2538,"itor":2539,"Ġter":2540,"ĠRobert":2541,"aled":2542,"ĠPaul":2543,"Ġisland":2544,"merc":2545,"Ġinvolved":2546,"Ġdev":2547,"BC":2548,"Ġnomin":2549,"ĠGame":2550,"Ġhours":2551,"ĠAngel":2552,"ago":2553,"asion":2554,"Ġemploy":2555,"ander":2556,"ĠYou":2557,"omas":2558,"ĠChampionship":2559,"ĠHam":2560,"Ġfinished":2561,"aper":2562,"Ġfree":2563,"Ġrul":2564,"Ġdou":2565,"emor":2566,"ĠÃ":2567,"13":2568,"face":2569,"ĠCro":2570,"Ġsaying":2571,"17":2572,"Ġstru":2573,"ico":2574,"Ġdesigned":2575,"oms":2576,"icated":2577,"Ġfund":2578,"cher":2579,"rem":2580,"Ġ187":2581,"oul":2582,"ĠMary":2583,"Ġscore":2584,"Ġregular":2585,"ecutive":2586,"ishing":2587,"Ġhighway":2588,"Ġpossible":2589,"Ġcontrib":2590,"Ġminutes":2591,"ĠBo":2592,"Ġcourt":2593,"Ġconduct":2594,"ights":2595,"16":2596,"Ġaut":2597,"Ġopening":2598,"Ġsouthern":2599,"Ġz":2600,"Ġearlier":2601,"antry":2602,"ĠEuropean":2603,"anned":2604,"itte":2605,"Ġly":2606,"ĠGreat":2607,"Ġavailable":2608,"Ġremov":2609,"Ġsex":2610,"ply":2611,"Ġinitially":2612,"Ġdesp":2613,"hib":2614,"Ġdirector":2615,"ĠFirst":2616,"Ġshot":2617,"Ġhom":2618,"Ġthreat":2619,"Ġdro":2620,"Ġpercent":2621,"rian":2622,"Ġbreak":2623,"asy":2624,"Ġpresident":2625,"ĠLou":2626,"anding":2627,"de":2628,"iding":2629,"ography":2630,"ipp":2631,"Ġtraining":2632,"Ġill":2633,"alled":2634,"Ġforced":2635,"ĠÂ°":2636,"orse":2637,"back":2638,"iff":2639,"anish":2640,"ateg":2641,"Ġ2000":2642,"ĠNavy":2643,"Ġpark":2644,"Ġsequ":2645,"Ġgrad":2646,"uture":2647,"ios":2648,"Ġcontr":2649,"ĠKingdom":2650,"ĠRoute":2651,"oph":2652,"Ġrespons":2653,"ĠPlay":2654,"Ġmust":2655,"iforn":2656,"As":2657,"ems":2658,"ĠRoman":2659,"Ġhy":2660,"ĠRepublic":2661,"mon":2662,"atural":2663,"Ġpraised":2664,"ended":2665,"ĠVal":2666,"apt":2667,"Ġstudio":2668,"den":2669,"Ġpassed":2670,"heast":2671,"Ġincreased":2672,"ĠMet":2673,"Ġchange":2674,"Ġhurricane":2675,"14":2676,"ĠMac":2677,"Ġended":2678,"Ġparticularly":2679,"Ġobject":2680,"ĠMal":2681,"Ġnorthern":2682,"Ġturned":2683,"ĠMart":2684,"ĠDep":2685,"ointed":2686,"ĠBer":2687,"anks":2688,"ĠBest":2689,"aker":2690,"Ġpriv":2691,"Ġsocial":2692,"ership":2693,"ocr":2694,"ĠInternational":2695,"ĠScott":2696,"Ġappearance":2697,"Ġregard":2698,"Ġlargest":2699,"ids":2700,"Ġphys":2701,"Ġunits":2702,"Ġnovel":2703,"ĠKe":2704,"ĠAtl":2705,"ĠWil":2706,"ĠChurch":2707,"Ġhard":2708,"Ġ186":2709,"pped":2710,"ference":2711,"Ġ2003":2712,"Ġchurch":2713,"aughter":2714,"uter":2715,"ĠMag":2716,"Ġpast":2717,"ĠLa":2718,"ĠVirgin":2719,"oring":2720,"onna":2721,"ston":2722,"sel":2723,"Ġimmedi":2724,"Ġdisp":2725,"Ġexist":2726,"ĠSome":2727,"anded":2728,"ĠCharles":2729,"ĠCaliforn":2730,"agon":2731,"ique":2732,"ĠCanada":2733,"Ġhighest":2734,"ĠBay":2735,"ilities":2736,"Ġrelig":2737,"Ġmeas":2738,"Ġkeep":2739,"etwork":2740,"Ġordered":2741,"arr":2742,"rup":2743,"Ġsym":2744,"ĠSen":2745,"Ġeduc":2746,"ĠSing":2747,"Ġtreat":2748,"Ġmove":2749,"ĠOff":2750,"ump":2751,"Ġachie":2752,"Ġcentral":2753,"arily":2754,"ecess":2755,"itz":2756,"ears":2757,"arter":2758,"Ġquest":2759,"ĠMcC":2760,"ĠBrown":2761,"time":2762,"Ġwinds":2763,"eck":2764,"Ġpers":2765,"ma":2766,"ĠThomas":2767,"nel":2768,"Ġtaking":2769,"ume":2770,"Ġpiec":2771,"ĠPal":2772,"ĠCalifornia":2773,"ĠRes":2774,"elled":2775,"ĠIsland":2776,"Ġenough":2777,"Ġlove":2778,"Ġlength":2779,"ĠUnion":2780,"Ġspent":2781,"Ġstop":2782,"Ġwall":2783,"Ġhous":2784,"ida":2785,"Ġbetter":2786,"Ġcycl":2787,"ĠCourt":2788,"Ġfilms":2789,"Ġcommerc":2790,"Ġsigned":2791,"Ġindepend":2792,"Ġoutside":2793,"quare":2794,"edy":2795,"Ġinn":2796,"uation":2797,"ands":2798,"Ġtold":2799,"Ġabove":2800,"ĠAward":2801,"berg":2802,"ĠWhite":2803,"Ġaccording":2804,"usion":2805,"Ġâ":2806,"atin":2807,"Ġpositive":2808,"osing":2809,"Ġsuper":2810,"Ġfootball":2811,"ittee":2812,"II":2813,"reng":2814,"ĠBut":2815,"Ġpot":2816,"Ġslow":2817,"Ġrequired":2818,"ĠAssoci":2819,"ĠGovern":2820,"Ġrecording":2821,"Ġsubject":2822,"Ġfailed":2823,"Ġelements":2824,"ĠSl":2825,"ĠCompany":2826,"alion":2827,"lying":2828,"Ġassist":2829,"mar":2830,"aint":2831,"Ġreviews":2832,"Ġstates":2833,"ĠCong":2834,"Ġinterview":2835,"Ġpreviously":2836,"ready":2837,"Ġfeel":2838,"isl":2839,"ĠRock":2840,"Ġcome":2841,"aters":2842,"Ġparts":2843,"Ġitself":2844,"Al":2845,"ĠMo":2846,"Ġgoing":2847,"ibility":2848,"ĠRichard":2849,"Ġ2001":2850,"erved":2851,"Ġap":2852,"amer":2853,"ĠAlex":2854,"ĠSmith":2855,"Ġcru":2856,"ĠChe":2857,"tt":2858,"Ġphot":2859,"oke":2860,"Ġlower":2861,"nes":2862,"ability":2863,"Ġdebut":2864,"ĠSam":2865,"ĠGermany":2866,"Ġclear":2867,"Ġrain":2868,"Ġspeed":2869,"ĠIndia":2870,"minist":2871,"van":2872,"Ġcontract":2873,"Ġthink":2874,"ises":2875,"ĠVict":2876,"Ġmean":2877,"ĠCollege":2878,"Ġbeginning":2879,"airs":2880,"Ġgroups":2881,"ĠTwo":2882,"Ġdespite":2883,"asons":2884,"ĠIr":2885,"ĠSk":2886,"ship":2887,"oviet":2888,"Ġbeg":2889,"Ġclaimed":2890,"Ġsil":2891,"Ġasked":2892,"Ġlangu":2893,"ĠStud":2894,"Ġborn":2895,"onse":2896,"ession":2897,"25":2898,"ĠCr":2899,"rief":2900,"Ġbi":2901,"eal":2902,"ĠGod":2903,"Ġinternational":2904,"Ġprevent":2905,"Ġtransfer":2906,"acted":2907,"Ġdirected":2908,"Ġcred":2909,"Ġadditional":2910,"igan":2911,"Ġflow":2912,"199":2913,"Ġcou":2914,"Ġlines":2915,"ĠAwards":2916,"ĠMer":2917,"not":2918,"Ġprob":2919,"Ġrap":2920,"Ġgive":2921,"gen":2922,"Ġpur":2923,"Ġnine":2924,"80":2925,"Ġ2002":2926,"ĠHill":2927,"Ġfuture":2928,"ĠMex":2929,"Ġwhose":2930,"Ġidea":2931,"Ġviol":2932,"Ġevidence":2933,"Ġsection":2934,"ĠCast":2935,"Ġquickly":2936,"atory":2937,"Ġwhom":2938,"Ġesp":2939,"ĠUK":2940,"ites":2941,"yr":2942,"ĠAc":2943,"ena":2944,"Ġfort":2945,"eum":2946,"ĠArt":2947,"Ġintroduced":2948,"usp":2949,"ĠÂ£":2950,"ĠChristian":2951,"Ġbridge":2952,"ĠTimes":2953,"ha":2954,"Ġtravel":2955,"ĠDespite":2956,"Ġalready":2957,"Ġdon":2958,"irth":2959,"ecially":2960,"Ġey":2961,"Ġprem":2962,"Ġleague":2963,"ĠForce":2964,"ys":2965,"ĠJos":2966,"Ġarrived":2967,"ĠMark":2968,"Ġop":2969,"Ġ31":2970,"unt":2971,"Ġsea":2972,"Ġpoor":2973,"Ġstreng":2974,"liam":2975,"Ġcenter":2976,"Ġabs":2977,"ĠSoviet":2978,"ĠPeter":2979,"ĠStar":2980,"Ġgold":2981,"ĠWestern":2982,"ĠDem":2983,"Ġdeal":2984,"ĠHot":2985,"Ġappl":2986,"ĠSoc":2987,"ĠGold":2988,"ĠDan":2989,"ĠCoun":2990,"Ġpen":2991,"Ġradio":2992,"ully":2993,"Ġcivil":2994,"Ġfrequ":2995,"Ġstudy":2996,"Ġmusical":2997,"ĠBritain":2998,"Ġkey":2999,"Ġdecision":3000,"Ġmagazine":3001,"liament":3002,"Ġpil":3003,"ĠFilm":3004,"Ġresponse":3005,"su":3006,"NA":3007,"ĠPat":3008,"Ġmoney":3009,"asc":3010,"Ġunc":3011,"Ch":3012,"sy":3013,"Ġfood":3014,"Ġproduct":3015,"ĠGrand":3016,"ien":3017,"Ġflood":3018,"AA":3019,"An":3020,"ĠDu":3021,"aries":3022,"Ġcarried":3023,"Ġenv":3024,"Ġcommunity":3025,"acing":3026,"Ġremain":3027,"Ġremaining":3028,"Ġdefeated":3029,"ĠFrank":3030,"Ġestimated":3031,"Ġblock":3032,"rel":3033,"Ġshows":3034,"Ġlab":3035,"han":3036,"Ġcompl":3037,"Ġoccup":3038,"ĠNY":3039,"Ġ1990":3040,"ĠTom":3041,"Ġusually":3042,"nown":3043,"Ġfemale":3044,"Wh":3045,"win":3046,"mir":3047,"ergy":3048,"Ġmight":3049,"Ġbecoming":3050,"It":3051,"Ġwestern":3052,"ulf":3053,"Ġconstruct":3054,"Ġlarger":3055,"Ġsurface":3056,"Ġminor":3057,"porary":3058,"Ġguitar":3059,"Ġpolice":3060,"Ġsuggested":3061,"erve":3062,"Ġissue":3063,"Ġteams":3064,"Ġ-":3065,"ximately":3066,"Ġlatter":3067,"aring":3068,"change":3069,"Ġaccess":3070,"Ġwood":3071,"Ġlyric":3072,"Ġmedia":3073,"inct":3074,"Ġsurround":3075,"Ġinvestig":3076,"ĠVictor":3077,"Ġexcept":3078,"Ġbrief":3079,"Ġstudents":3080,"Ġconcern":3081,"ĠDon":3082,"ĠPac":3083,"ari":3084,"ederal":3085,"Ġcomplete":3086,"Ġdeterm":3087,"incip":3088,"ending":3089,"Ġprison":3090,"Ġconsider":3091,"Ġliter":3092,"Ġdiscuss":3093,"Ġcommercial":3094,"Ġepisodes":3095,"Ġespecially":3096,"imate":3097,"lymp":3098,"Ġshoot":3099,"ulated":3100,"ĠVirginia":3101,"ĠChic":3102,"Ġdoc":3103,"Ġacqu":3104,"Ġchanges":3105,"que":3106,"Ġprior":3107,"ĠMount":3108,"ĠLos":3109,"ĠBen":3110,"Ġbur":3111,"ests":3112,"enth":3113,"Ġfleet":3114,"oe":3115,"Ġeffects":3116,"Ġbow":3117,"iser":3118,"Ġsummer":3119,"ĠFranc":3120,"Ġdestroyed":3121,"Ġeastern":3122,"Ġpersonal":3123,"Ġleaving":3124,"Ġcertain":3125,"oo":3126,"Ġstaff":3127,"mitted":3128,"ga":3129,"Ġriver":3130,"Ġmarket":3131,"ournal":3132,"ires":3133,"igade":3134,"idents":3135,"ension":3136,"ĠBur":3137,"Ġentered":3138,"Ġtar":3139,"ĠFlor":3140,"At":3141,"Ġappointed":3142,"Ġlimited":3143,"ties":3144,"Ġpolic":3145,"ĠOlymp":3146,"ĠRob":3147,"Ġprovide":3148,"ĠTex":3149,"ĠClub":3150,"Ġcomplet":3151,"Ġrights":3152,"Ġterrit":3153,"Ġdraw":3154,"Ġinfluence":3155,"Ġproposed":3156,"ores":3157,"Ġ1970":3158,"Ġpay":3159,"Ġcommission":3160,"ication":3161,"Ġfail":3162,"can":3163,"inese":3164,"Ġstructure":3165,"Ġoverall":3166,"ÃŃ":3167,"iles":3168,"Ġlo":3169,"Ġtransport":3170,"Ġsat":3171,"Ġden":3172,"ĠSecond":3173,"Ġscreen":3174,"Ġder":3175,"Ġtrib":3176,"rd":3177,"Ġboard":3178,"down":3179,"Ġagreed":3180,"ĠAssociation":3181,"Ġemer":3182,"ĠDay":3183,"ĠJackson":3184,"Ġsometimes":3185,"sen":3186,"Ġintended":3187,"ift":3188,"Ġexc":3189,"Ġscript":3190,"Ġtax":3191,"ĠThat":3192,"atives":3193,"Ġarrang":3194,"Ġ1980":3195,"imum":3196,"Ġelection":3197,"Ġdivision":3198,"inent":3199,"aded":3200,"Ġresearch":3201,"Ġpurch":3202,"rated":3203,"Ġsize":3204,"Ġbroadcast":3205,"Ġscenes":3206,"ĠFle":3207,"Ġmarried":3208,"Ġwriter":3209,"Ġhelped":3210,"Ġdaughter":3211,"Ġpressure":3212,"ĠLouis":3213,"Ġawarded":3214,"Ġdate":3215,"ĠParty":3216,"ĠFrom":3217,"70":3218,"atively":3219,"teen":3220,"Ġcal":3221,"rol":3222,"ili":3223,"ĠLater":3224,"pe":3225,"Ġself":3226,"Ġmultip":3227,"ĠCouncil":3228,"Ġjud":3229,"ĠChicago":3230,"action":3231,"ounds":3232,"Ġmovement":3233,"Ġsupported":3234,"Ġnearly":3235,"Ġanti":3236,"omer":3237,"Ġdi":3238,"Ã¶":3239,"uz":3240,"Ġ(\"":3241,"Ġdiss":3242,"Ġlonger":3243,"icted":3244,"ĠIm":3245,"order":3246,"Ġsusp":3247,"ĠSpanish":3248,"olk":3249,"class":3250,"Ġcreate":3251,"Ġbird":3252,"Ġfavor":3253,"vin":3254,"ronic":3255,"Ġhigher":3256,"Ġcaptured":3257,"Ġconclud":3258,"Ġfans":3259,"bers":3260,"abit":3261,"enty":3262,"ĠDo":3263,"olic":3264,"Ġexperience":3265,"Ġplanned":3266,"Ġgirl":3267,"dle":3268,"Ġthemsel":3269,"Ġthemselves":3270,"Ġroom":3271,"known":3272,"Ġcompared":3273,"Ġchanged":3274,"isions":3275,"Ġdeep":3276,"ĠGreen":3277,"Ġcat":3278,"Ġincreasing":3279,"ny":3280,"ij":3281,"Ġwithd":3282,"Ġcourse":3283,"ĠEdward":3284,"Ġfeature":3285,"Ġstars":3286,"Ġdone":3287,"well":3288,"umn":3289,"ĠKore":3290,"ĠMill":3291,"ĠBillboard":3292,"Ġestablish":3293,"ĠHistory":3294,"hold":3295,"thing":3296,"Ġoperations":3297,"Ġequip":3298,"stant":3299,"ĠEmp":3300,"ĠEarly":3301,"Ã¼":3302,"imin":3303,"ams":3304,"Ġthus":3305,"ĠEnter":3306,"sis":3307,"raz":3308,"ĠSong":3309,"Ġspace":3310,"Ġremains":3311,"andon":3312,"ĠChinese":3313,"ĠServ":3314,"Ġtracks":3315,"bour":3316,"eff":3317,"writ":3318,"Ġ1999":3319,"Ġcopies":3320,"Ġparen":3321,"Ġintens":3322,"Ġrunning":3323,"Ġsoldiers":3324,"oes":3325,"Ġweap":3326,"Ġlyrics":3327,"Ġbuildings":3328,"tained":3329,"Ġwoman":3330,"Ġliving":3331,"Ġdepart":3332,"Ġbring":3333,"Ġdark":3334,"Ġconcept":3335,"riage":3336,"ospital":3337,"ows":3338,"Ġcountries":3339,"ibr":3340,"Ġmostly":3341,"Ġwhether":3342,"Ġbattles":3343,"ĠInf":3344,"hood":3345,"Ġextended":3346,"ĠItal":3347,"Ġsuffered":3348,"Ġ1960":3349,"Ġapproximately":3350,"Ġtemper":3351,"Ġleader":3352,"Ġgoals":3353,"ĠSal":3354,"Ġcomplex":3355,"Ġcm":3356,"Ġvoice":3357,"Ġult":3358,"Ġchall":3359,"Ġincludes":3360,"ĠPacific":3361,"bury":3362,"Ġattend":3363,"Ġbig":3364,"ĠMont":3365,"iring":3366,"iant":3367,"itted":3368,"Ġour":3369,"During":3370,"Ġfifth":3371,"rial":3372,"Ġimmediately":3373,"Ġofficers":3374,"Ġheav":3375,"lor":3376,"lebr":3377,"Ġdead":3378,"Ġissued":3379,"Ġforward":3380,"Ġnatural":3381,"ĠEv":3382,"Ġproducer":3383,"ĠLake":3384,"ĠScot":3385,"Ġwide":3386,"ĠOver":3387,"bed":3388,"reak":3389,"ĠCongress":3390,"ĠOper":3391,"venue":3392,"ĠFlorida":3393,"Ġ60":3394,"500":3395,"Ġincrease":3396,"ĠJohnson":3397,"Ġlikely":3398,"Ġface":3399,"Ġremoved":3400,"Ġsyn":3401,"Ġprivate":3402,"ria":3403,"Ġplans":3404,"ections":3405,"Ġsubsequently":3406,"oys":3407,"Ġinitial":3408,"Ġkil":3409,"Ġdistrib":3410,"Ġleave":3411,"Ġcapital":3412,"Ġservices":3413,"ging":3414,"Ġcoin":3415,"Ġnetwork":3416,"iation":3417,"Ġquarter":3418,"Ġvisit":3419,"Ġmach":3420,"ste":3421,"ctor":3422,"Ġcompan":3423,"yard":3424,"ograph":3425,"Ġhop":3426,"Ġproblems":3427,"Ġmixed":3428,"Ġbreed":3429,"Ġfocus":3430,"ously":3431,"etic":3432,"aily":3433,"Ġoffered":3434,"ĠSun":3435,"oper":3436,"Ġterms":3437,"vey":3438,"Ġdram":3439,"ĠCont":3440,"ĠTown":3441,"Ġconfl":3442,"Ġlocation":3443,"ounted":3444,"Ġapproach":3445,"Ġmount":3446,"Ġstatus":3447,"ĠUp":3448,"ĠJust":3449,"Ġtons":3450,"ironment":3451,"ĠFollowing":3452,"track":3453,"Ġmanager":3454,"Ġvillage":3455,"Ġvia":3456,"Ġhealth":3457,"adium":3458,"urt":3459,"ĠBack":3460,"ĠTexas":3461,"burg":3462,"Ã³":3463,"Ġadminist":3464,"wer":3465,"very":3466,"Ġmodel":3467,"Ġfell":3468,"Ġmur":3469,"ĠFort":3470,"ĠFinal":3471,"Ġprobably":3472,"ĠApp":3473,"aches":3474,"uries":3475,"Ġmajority":3476,"Ġran":3477,"Ġflag":3478,"ĠRo":3479,"chester":3480,"ĠChina":3481,"Ġinstr":3482,"ĠRail":3483,"Ġsch":3484,"ĠInter":3485,"Ġcause":3486,"hod":3487,"Ġmeeting":3488,"uf":3489,"ĠQueen":3490,"ĠAtlantic":3491,"cean":3492,"Ġappears":3493,"ĠAfrica":3494,"lo":3495,"Ġalways":3496,"ify":3497,"ĠCamp":3498,"Ġdeg":3499,"Ġ1998":3500,"Ġjob":3501,"ĠSea":3502,"Ġinters":3503,"itect":3504,"Ġdamaged":3505,"Ġconfir":3506,"Ġcounter":3507,".,":3508,"Ġrevealed":3509,"ĠDist":3510,"ĠCenter":3511,"ĠSquadron":3512,"reater":3513,"ĠJew":3514,"Ġadop":3515,"rown":3516,"Ġcarry":3517,"ĠTor":3518,"umed":3519,"Ġindividual":3520,"ective":3521,"Ġgot":3522,"Ġwinning":3523,"aging":3524,"ĠPri":3525,"ĠMost":3526,"eph":3527,"Ġnorm":3528,"ĠEarth":3529,"Ġrespectively":3530,"Ġcomposed":3531,"ĠLaw":3532,"Ġdiscovered":3533,"Ġfinanc":3534,"ĠAngeles":3535,"Ġconsist":3536,"Ġcolon":3537,"ĠTrans":3538,"ware":3539,"Ġnumerous":3540,"use":3541,"ails":3542,"Ġtor":3543,"Ġreally":3544,"ault":3545,"lit":3546,"ription":3547,"ĠIts":3548,"Ġplot":3549,"estival":3550,"Ġoccurred":3551,"iest":3552,"VD":3553,"uals":3554,"ĠLord":3555,"uments":3556,"rie":3557,"Ġraised":3558,"ĠCanadian":3559,"bit":3560,"Ġconditions":3561,"ĠPet":3562,"road":3563,"Ġattempted":3564,"Ġnature":3565,"Ġattacks":3566,"Ġprofessional":3567,"ĠHighway":3568,"ĠWood":3569,"Ġassociated":3570,"Ġcand":3571,"ĠKent":3572,"Ġtakes":3573,"isk":3574,"shire":3575,"Ġmakes":3576,"ĠCarol":3577,"Ġshown":3578,"Ġcontains":3579,"Ġanc":3580,"Ġvehic":3581,"oly":3582,"Ġlay":3583,"vert":3584,"ĠJim":3585,"Ġsomething":3586,"Ġsales":3587,"aught":3588,"Ġaccomp":3589,"arian":3590,"Ġbene":3591,"Ġlaunched":3592,"Ġaltern":3593,"urity":3594,"Ġneeded":3595,"75":3596,"gely":3597,"ĠCentral":3598,"izing":3599,"Ġcoach":3600,"Ġtype":3601,"Ġissues":3602,"uing":3603,"Ġyet":3604,"Ġattacked":3605,"reme":3606,"Ġinformation":3607,"Ġupper":3608,"ĠLit":3609,"ken":3610,"Ġcer":3611,"Ġbirth":3612,"Ġwhole":3613,"hem":3614,"Ġimm":3615,"Ġ185":3616,"Ġresulted":3617,"Ġfarm":3618,"ani":3619,"Ġdefeat":3620,"ĠTour":3621,"ĠBow":3622,"Ġyards":3623,"illed":3624,"Ġsmaller":3625,"gl":3626,"ĠOl":3627,"aph":3628,"ĠMur":3629,"Ġflight":3630,"Ġlanguage":3631,"Ġmom":3632,"Ġsal":3633,"uated":3634,"Ġvir":3635,"Ġnumbers":3636,"Ġcollect":3637,"Ġincor":3638,"Ġfinally":3639,"ortun":3640,"itation":3641,"ounded":3642,"enant":3643,"Ġselected":3644,"ĠEmpire":3645,"Ġsinger":3646,"ider":3647,"Ġreferred":3648,"ayed":3649,"Ġindustry":3650,"Ġranked":3651,"ĠMartin":3652,"ĠGroup":3653,"onic":3654,"Ġsen":3655,"Ġdig":3656,"Ġcritical":3657,"Ġscient":3658,"oud":3659,"Ġcommented":3660,"itude":3661,"Ġassigned":3662,"ãĥ":3663,"Ġqual":3664,"Ġmission":3665,"wide":3666,"Ġlegisl":3667,"ĠYear":3668,"Ġearned":3669,"35":3670,"aine":3671,"Ġbox":3672,"ĠMel":3673,"Ġslight":3674,"arters":3675,"lled":3676,"Ġaudience":3677,"ĠCorps":3678,"Ġcelebr":3679,"Ġens":3680,"Ġprincip":3681,"Ġlargely":3682,"Ġexpected":3683,"Ġactive":3684,"irection":3685,"ĠIII":3686,"ĠSir":3687,"ĠDes":3688,"Ġwant":3689,"Ġunable":3690,"Ġartic":3691,"light":3692,"erry":3693,"ĠOld":3694,"ounts":3695,"war":3696,"Ġplant":3697,"Ġ1997":3698,"Ġrefused":3699,"ighter":3700,"ogue":3701,"Ġsched":3702,"Ġfriends":3703,"Ġindic":3704,"Ġnewsp":3705,"Ġanaly":3706,"Ġattention":3707,"Ġexam":3708,"house":3709,"Ġsaf":3710,"ĠRussian":3711,"ĠAnt":3712,"Ġemb":3713,"Ġrequest":3714,"ĠRev":3715,"Ġdomin":3716,"Ġrecover":3717,"Ġmethod":3718,"hips":3719,"24":3720,"Ġroy":3721,"Ġmoving":3722,"ux":3723,"Ġsem":3724,"ĠBoth":3725,"Ġartist":3726,"Ġclosed":3727,"ona":3728,"Ġtrade":3729,"ĠDVD":3730,"Ġstandard":3731,"Ġlink":3732,"Ġprimary":3733,"Ġofficer":3734,"Ġlisted":3735,"joy":3736,"Ġsecret":3737,"isher":3738,"Ġdepression":3739,"het":3740,"Ġperformances":3741,"Ġeducation":3742,"anced":3743,"ĠTur":3744,"ples":3745,"Ġ2016":3746,"Ġmeant":3747,"bridge":3748,"ening":3749,"undred":3750,"Ġability":3751,"Ġbelow":3752,"Ġunderst":3753,"ĠItalian":3754,"ĠCam":3755,"ĠRad":3756,"90":3757,"Ġbad":3758,"ĠPenn":3759,"Ġdeclared":3760,"Ġthr":3761,"ĠViet":3762,"Ġreason":3763,"iled":3764,"ĠKn":3765,"ĠHow":3766,"ĠRh":3767,"Ġmale":3768,"ĠWales":3769,"Ġcontem":3770,"ette":3771,"Ġletter":3772,"ĠDel":3773,"Ġhot":3774,"Ġpit":3775,"aped":3776,"Ġ35":3777,"22":3778,"Ġoperation":3779,"Ġmatches":3780,"ĠStr":3781,"Ġrecords":3782,"Ġsett":3783,"utch":3784,"Ġbooks":3785,"Ġcommander":3786,"imb":3787,"Ġtraditional":3788,"ady":3789,"antasy":3790,"inch":3791,"Ġmax":3792,"Ġnames":3793,"gu":3794,"ĠMiss":3795,"ĠMany":3796,"Ġplat":3797,"odies":3798,"Ġgiving":3799,"Ġtalk":3800,"pass":3801,"everal":3802,"Ġcompetition":3803,"iences":3804,"Ġconstit":3805,"Ġelected":3806,"Ġwalk":3807,"ector":3808,"ĠBig":3809,"ĠZeal":3810,"Ġquestion":3811,"Ġrelated":3812,"Ġinspired":3813,"Ġkind":3814,"atre":3815,"Ġmiddle":3816,"miral":3817,"Ġproduce":3818,"ĠTV":3819,"Ġ1950":3820,"ĠLove":3821,"Ġcentre":3822,"Ġcovered":3823,"ĠMinister":3824,"Ġaccount":3825,"Ġsister":3826,"ĠAcad":3827,"ĠWin":3828,"Ġdemon":3829,"Ġfighting":3830,"Ġvocals":3831,"ĠStep":3832,"ĠDemocr":3833,"ervation":3834,"ĠMass":3835,"icient":3836,"ares":3837,"echan":3838,"ĠSuper":3839,"Ġprec":3840,"Ġword":3841,"Ġund":3842,"Ġrapid":3843,"Ġmention":3844,"ĠNort":3845,"Ġabandon":3846,"Ġunit":3847,"Ġnecess":3848,"ether":3849,"oses":3850,"arts":3851,"Ġreligious":3852,"Ġdouble":3853,"ĠBet":3854,"ĠTest":3855,"ado":3856,"Ġpow":3857,"ĠMichigan":3858,"Ġtheme":3859,"rier":3860,"arrow":3861,"Ġpurp":3862,"ĠMr":3863,"Ġdisapp":3864,"anes":3865,"ishop":3866,"Ġnearby":3867,"Ġ184":3868,"ĠZealand":3869,"cle":3870,"ĠEr":3871,"cel":3872,"ping":3873,"band":3874,"vention":3875,"Ġtraff":3876,"When":3877,"Ġ1940":3878,"Ġconstructed":3879,"Ġdocument":3880,"MS":3881,"Ġblood":3882,"ĠCath":3883,"Ġrate":3884,"Ġcontinue":3885,"Ġtouch":3886,"Ġpositions":3887,"right":3888,"Ġserious":3889,"ibly":3890,"ansion":3891,"Ġseparate":3892,"ieut":3893,"ĠCle":3894,"Ġgrand":3895,"ĠMidd":3896,"Ġpresented":3897,"Ġeffort":3898,"Ġcas":3899,"Ġtrain":3900,"ĠCare":3901,"Ġdirectly":3902,"Ġannual":3903,"emorial":3904,"Ġcontrovers":3905,"Ġreduced":3906,"Ġmeans":3907,"Ġnotes":3908,"Ġroyal":3909,"ummer":3910,"Ġneigh":3911,"acher":3912,"Ġ1995":3913,"Ġpractice":3914,"uit":3915,"ĠMexico":3916,"force":3917,"vement":3918,"ĠOx":3919,"Ġattended":3920,"Ġ1996":3921,"Ġforest":3922,"osen":3923,"ĠDis":3924,"Ġstating":3925,"Ġdut":3926,"Ġtried":3927,"rical":3928,"Ġcompos":3929,"Ġri":3930,"isation":3931,"Ġpick":3932,"Ġaccepted":3933,"ĠArch":3934,"\")":3935,"stitute":3936,"ya":3937,"Ġprep":3938,"Ġenergy":3939,"Ġlevels":3940,"Ġcandid":3941,"Ġadvance":3942,"ĠAfrican":3943,"Ġarchitect":3944,"Ġcombat":3945,"ersey":3946,"Äĩ":3947,"Ar":3948,"based":3949,"Ġhighly":3950,"Ġenjoy":3951,"eway":3952,"Ġconcert":3953,"ĠNot":3954,"Ġtext":3955,"ims":3956,"Ġedition":3957,"Ġrepe":3958,"Ġschools":3959,"icip":3960,"ada":3961,"Ġtwenty":3962,"illery":3963,"Ġdism":3964,"Ġpair":3965,"Ġang":3966,"Ġreject":3967,"ĠFore":3968,"Ġwatch":3969,"Ġefforts":3970,"Ġportray":3971,"ĠWal":3972,"ecause":3973,"Ġrein":3974,"ĠFox":3975,"Ġmovie":3976,"utions":3977,"Ġsevent":3978,"ait":3979,"Ġdirection":3980,"ĠDepartment":3981,"irit":3982,"claim":3983,"tered":3984,"ieutenant":3985,"Ġasp":3986,"Ġpurs":3987,"ican":3988,"Ġresulting":3989,"Ġrecomm":3990,"Ġmarriage":3991,"ĠCons":3992,"ĠLong":3993,"awn":3994,"Ġcollege":3995,"Ġhar":3996,"Ġoil":3997,"umber":3998,"Ġlegal":3999,"ka":4000,"Ġcases":4001,"ĠInfantry":4002,"Ġnuc":4003,"olf":4004,"ĠTeam":4005,"Ġavoid":4006,"Ġdra":4007,"Ġmetal":4008,"Ġinside":4009,"Ġdropped":4010,"Ġcyclone":4011,"Ġresponsible":4012,"ceeded":4013,"ĠMajor":4014,"Ġenvironment":4015,"Ġdisplay":4016,"ĠGar":4017,"Ġamb":4018,"Ġbegins":4019,"Ġshowed":4020,"ĠScotland":4021,"Ġmanaged":4022,"Ġcust":4023,"28":4024,"ĠIf":4025,"Ġ1994":4026,"mark":4027,"Ġthick":4028,"He":4029,"Ġcerem":4030,"Ġvariety":4031,"load":4032,"more":4033,"Ġge":4034,"peror":4035,"ĠAnother":4036,"Ġincorpor":4037,"ĠHaw":4038,"ĠUnder":4039,"Ġkept":4040,"ĠCreek":4041,"Ġrare":4042,"Ġnation":4043,"Ġhouses":4044,"Ġforms":4045,"ĠOut":4046,"ĠWall":4047,"cend":4048,"Ġseem":4049,"Ġwords":4050,"Ġfast":4051,"ros":4052,"Ġinches":4053,"Ġschol":4054,"een":4055,"Ġchampionship":4056,"ecting":4057,"ini":4058,"rug":4059,"gypt":4060,"Ġculture":4061,"ĠMore":4062,"Ġcontinues":4063,"Åį":4064,"TV":4065,"Ġarrest":4066,"ĠBost":4067,"ĠBu":4068,"Ġcle":4069,"Ġrat":4070,"ĠRecords":4071,"Ġmorning":4072,"ĠCross":4073,"Ġ+":4074,"Ġ80":4075,"Ġuses":4076,"Ġdom":4077,"Ġhorse":4078,"29":4079,"inson":4080,"ih":4081,"ulations":4082,"ĠCrit":4083,"eed":4084,"Ġkilomet":4085,"ĠKenn":4086,"ĠService":4087,"bl":4088,"thur":4089,"Ġbank":4090,"Ġscience":4091,"ĠSar":4092,"aud":4093,"Ġsettle":4094,"Ġdefend":4095,"Ġconducted":4096,"23":4097,"ĠGames":4098,"ĠTime":4099,"ĠParliament":4100,"Ġsource":4101,"27":4102,"ita":4103,"ĠStone":4104,"Ġamount":4105,"Ġpresence":4106,"Ġimpact":4107,"ĠTheir":4108,"ications":4109,"Ġsymb":4110,"Ġmetres":4111,"irm":4112,"Ġtur":4113,"Ġ1930":4114,"ĠSociety":4115,"ĠPost":4116,"Ġallowing":4117,"Ġlear":4118,"arent":4119,"Ġstarting":4120,"Ġviewers":4121,"Ġending":4122,"earing":4123,"Ġmarked":4124,"ingu":4125,"rec":4126,"itt":4127,"ils":4128,"ĠLeg":4129,"ĠBC":4130,"Ġlived":4131,"ĠTre":4132,"Ġtransferred":4133,"inet":4134,"Ġstrugg":4135,"Ġdu":4136,"Ġexhib":4137,"ĠBob":4138,"Ġeconomic":4139,"itiz":4140,"ĠGreek":4141,"Ġpeaked":4142,"Ġsuppl":4143,"Ġchap":4144,"fect":4145,"Ġpotential":4146,"Ġcontrast":4147,"ĠEgypt":4148,"ĠMadonna":4149,"mission":4150,"ĠWilliams":4151,"ĠHel":4152,"Ġ1992":4153,"Ġbecomes":4154,"Ġrule":4155,"pro":4156,"ĠKh":4157,"Ġenemy":4158,"ĠNews":4159,"ĠCommittee":4160,"Ġportion":4161,"Ġ70":4162,"ĠSecret":4163,"Ġmeaning":4164,"Ġhundred":4165,"iance":4166,"Ġconcluded":4167,"udd":4168,"Ġheart":4169,"while":4170,"Ġtraffic":4171,"ĠAnn":4172,"alle":4173,"ĠFoot":4174,"Ġgreater":4175,"Ġ45":4176,"Ġattempts":4177,"Ġforeign":4178,"Ġcastle":4179,"Ġproperty":4180,"ĠArab":4181,"ĠChris":4182,"21":4183,"Ġencoun":4184,"mas":4185,"Ġraid":4186,"sych":4187,"ressive":4188,"Ġrespond":4189,"ellig":4190,"Ġdistinct":4191,"Ġthings":4192,"ns":4193,"Ġmess":4194,"Ġstories":4195,"Ġsides":4196,"Ġfinancial":4197,"Ġbeat":4198,"ĠDou":4199,"Ġanimals":4200,"ĠBook":4201,"ĠDar":4202,"Ġobserved":4203,"istics":4204,"Ġdance":4205,"ĠFour":4206,"There":4207,"ĠStan":4208,"ols":4209,"Ġchief":4210,"Ġfederal":4211,"ĠVer":4212,"Ġvocal":4213,"Ġcollection":4214,"26":4215,"Ġopportun":4216,"Ġrelatively":4217,"Ġmultiple":4218,"ĠJones":4219,"Ġtourn":4220,"100":4221,"ĠBoston":4222,"uge":4223,"Ġyour":4224,"Ġple":4225,"Ġ1942":4226,"Ġsituation":4227,"quarters":4228,"Ġjournal":4229,"Ġweaken":4230,"Ġded":4231,"ĠMic":4232,"stein":4233,"ĠTri":4234,"ĠBattalion":4235,"ala":4236,"Ġpremi":4237,"ĠSo":4238,"Ġprimarily":4239,"ĠBridge":4240,"AF":4241,"Ġlif":4242,"Ġparents":4243,"Ġcompanies":4244,"Ġwriters":4245,"ĠSouthern":4246,"Ġactually":4247,"Ġunivers":4248,"ĠGeorg":4249,"ĠMatt":4250,"Ġonto":4251,"ĠSur":4252,"anna":4253,"perial":4254,"Ġactor":4255,"atched":4256,"ĠCommission":4257,"ricket":4258,"ky":4259,"Ġcollabor":4260,"AS":4261,"ĠOxford":4262,"ĠSol":4263,"astic":4264,"Ġ180":4265,"Ġshare":4266,"Ġmechan":4267,"istry":4268,"aga":4269,"Ġopt":4270,"acts":4271,"annel":4272,"eds":4273,"osaur":4274,"oration":4275,"ĠSince":4276,"ĠVietn":4277,"Ġdivided":4278,"Ġ1991":4279,"Ġwrite":4280,"Ġactions":4281,"illa":4282,"ĠManchester":4283,"mond":4284,"Ġfeaturing":4285,"itan":4286,"Ġreform":4287,"aven":4288,"Ġconcent":4289,"ero":4290,"ĠSwed":4291,"Ġbroke":4292,"Ġinnings":4293,"Ġcaptain":4294,"Ġ1993":4295,"ĠPrince":4296,"45":4297,"ĠSat":4298,"Ġrating":4299,"ĠOtt":4300,"inem":4301,"rupt":4302,"Ġlot":4303,"onn":4304,"thlet":4305,"Ġdise":4306,"oti":4307,"ĠLu":4308,"town":4309,"Ġtarget":4310,"Ġplays":4311,"Ġcho":4312,"omy":4313,"ĠParis":4314,"ĠAcademy":4315,"Ġfigure":4316,"Ġmaximum":4317,"Ġwaters":4318,"ĠLatin":4319,"Ġultimately":4320,"Ġsought":4321,"Ġspot":4322,"ym":4323,"olved":4324,"Ġspecific":4325,"ota":4326,"ĠEntertain":4327,"By":4328,"ining":4329,"ĠBBC":4330,"Ġ90":4331,"Ġsociety":4332,"Ġslightly":4333,"za":4334,"cers":4335,"Ġindependent":4336,"ĠGo":4337,"ylvan":4338,"Ġtend":4339,"Ġstrength":4340,"Ġinterp":4341,"Ġfunction":4342,"Ġactivity":4343,"ĠDen":4344,"ĠPan":4345,"ĠMuseum":4346,"Ġfounded":4347,"ĠStephen":4348,"Ġpolicy":4349,"Ġtrial":4350,"Ġbehav":4351,"iano":4352,"ĠBrad":4353,"Ġmel":4354,"Ġcombined":4355,"Ġvess":4356,"Ġseconds":4357,"orses":4358,"Ġquality":4359,"Ġtorped":4360,"Ġofficials":4361,"bo":4362,"Ġconver":4363,"Ġstruck":4364,"ĠHarrison":4365,"Ġsay":4366,"Ġ1944":4367,"Ġpaid":4368,"HL":4369,"Ġwebs":4370,"Ġalongside":4371,"Ġcalling":4372,"Ġacting":4373,"Ġsources":4374,"adel":4375,"ĠBrigade":4376,"ĠColumb":4377,"Ġlog":4378,"ĠLine":4379,"Ġbackground":4380,"Ġthir":4381,"Ġgar":4382,"ĠJeff":4383,"rowd":4384,"ĠBat":4385,"ĠCaptain":4386,"ĠJoseph":4387,"Ġsearch":4388,"Ġpilot":4389,"ĠBoy":4390,"Ġwinter":4391,"ĠSeries":4392,"ĠSpec":4393,"ĠEntertainment":4394,"Ġgained":4395,"Ġthous":4396,"Ġartists":4397,"'m":4398,"reland":4399,"Ġmill":4400,"ĠItaly":4401,"ube":4402,"33":4403,"Ġnaval":4404,"Ġpowerful":4405,"Ġrough":4406,"Ġbatter":4407,"Ġscoring":4408,"Ġsystems":4409,"Ġrecent":4410,"Ġsuc":4411,"Ġmainly":4412,"ĠFred":4413,"ĠClass":4414,"ĠAvenue":4415,"Ġproblem":4416,"Ġcontent":4417,"aling":4418,"ibrary":4419,"Ġseg":4420,"ĠRegiment":4421,"Ġconfirmed":4422,"Ġresults":4423,"iced":4424,"Ġmem":4425,"Ġsubsequent":4426,"Ġpromoted":4427,"Ġnews":4428,"Ġexplained":4429,"Ġcompletely":4430,"Ġwidely":4431,"ĠSil":4432,"Ġtheory":4433,"Ġalbums":4434,"Ġencour":4435,"ĠAp":4436,"iro":4437,"Ġtoday":4438,"ĠArm":4439,"olt":4440,"ĠForm":4441,"Ġpassing":4442,"Ġconflict":4443,"unction":4444,"ĠWay":4445,"198":4446,"Ġhus":4447,"Ġproved":4448,"oured":4449,"ĠTw":4450,"eld":4451,"bon":4452,"ĠMa":4453,"bur":4454,"ĠFin":4455,"Ġbill":4456,"Ġshortly":4457,"Ġversions":4458,"ĠFleet":4459,"Ġnominated":4460,"oung":4461,"ĠDef":4462,"We":4463,"Ġdistance":4464,"ĠSaint":4465,"Ġsays":4466,"ĠTim":4467,"itness":4468,"Ġice":4469,"Ġinvasion":4470,"ĠChief":4471,"Ġreception":4472,"Ġ1941":4473,"Ġess":4474,"ees":4475,"Ġserve":4476,"Ġplatform":4477,"Ġcounty":4478,"Ġexpressed":4479,"ĠIreland":4480,"Ġpath":4481,"Ġcorn":4482,"Ġreaching":4483,"la":4484,"Ġresidents":4485,"ancy":4486,"Ġblue":4487,"Ġtitled":4488,"ĠOh":4489,"Ġpeace":4490,"Ġdesignated":4491,"Ġsoundtrack":4492,"Ġcities":4493,"ategory":4494,"37":4495,"ĠLuc":4496,"Ġappearances":4497,"Ġcausing":4498,"och":4499,"agn":4500,"ĠPop":4501,"Ġboy":4502,"ips":4503,"Ġcharge":4504,"Ġ1920":4505,"ĠGre":4506,"Ġrequire":4507,"clus":4508,"ĠOs":4509,"ighth":4510,"'re":4511,"Sh":4512,"arden":4513,"Ġbound":4514,"Ġhospital":4515,"Ġi":4516,"Ġadj":4517,"Ġfavour":4518,"Ġcoming":4519,"Ġsust":4520,"ĠValley":4521,"ĠVan":4522,"ĠThree":4523,"rog":4524,"Ġkg":4525,"ĠAdmiral":4526,"Ġtells":4527,"Ġtransl":4528,"itable":4529,"ev":4530,"Ġolder":4531,"Ġchem":4532,"ĠLee":4533,"ola":4534,"ĠHurricane":4535,"95":4536,"Ġartillery":4537,"ĠCroat":4538,"Ġoffer":4539,"Ġpiece":4540,");":4541,"eption":4542,"ports":4543,"resp":4544,"ylvania":4545,"Ġphysical":4546,"Ġsixth":4547,"ĠSpr":4548,"ĠVictoria":4549,"lines":4550,"ordin":4551,"Ġgreatest":4552,"abeth":4553,"ĠTer":4554,"Ġseasons":4555,"Ġ1945":4556,"ĠMod":4557,"Ġborder":4558,"Ġweather":4559,"Ġhands":4560,"ĠWind":4561,"Ġweapons":4562,"rich":4563,"anta":4564,"add":4565,"Americ":4566,"Ġseek":4567,"Ġidentified":4568,"Ġsense":4569,"ĠAlb":4570,"ran":4571,"prise":4572,"Ġheavily":4573,"Ġstudies":4574,"Ġsexual":4575,"essions":4576,"Ġsquare":4577,"ĠPre":4578,"Ġhero":4579,"Ġgas":4580,"Ġstudent":4581,"pool":4582,"Ġir":4583,"struction":4584,"Ġdebuted":4585,"Ġpun":4586,"Ġresist":4587,"ĠNin":4588,"Ġrepresented":4589,"Ġconsisted":4590,"ĠMax":4591,"Ġsn":4592,"ias":4593,"Ġmind":4594,"stone":4595,"ayer":4596,"Ġinstit":4597,"Ġ1943":4598,"Ġsupp":4599,"Ġprominent":4600,"ĠMiddle":4601,"ror":4602,"Ġspread":4603,"Ġdistrict":4604,"urban":4605,"Ġorganization":4606,"Ġequipment":4607,"Ġwing":4608,"ĠProdu":4609,"Ġargued":4610,"Ġelectric":4611,"acity":4612,"Ġsend":4613,"Ġinfluenced":4614,"ockey":4615,"Ġexped":4616,"Ġpal":4617,"Ġofficially":4618,"ĠHal":4619,"Ġprepar":4620,"ushed":4621,"Ġfigures":4622,"Ġemot":4623,"ĠAmericans":4624,"Ġburn":4625,"Ġinjury":4626,"Ġapparent":4627,"uman":4628,"Ġreturning":4629,"Ġimage":4630,"Ġcouple":4631,"Ġaired":4632,"ĠCatholic":4633,"anger":4634,"set":4635,"century":4636,"ote":4637,"ĠEll":4638,"ĠKr":4639,"Ġ500":4640,"Ġahead":4641,"Ġcapture":4642,"Ġhour":4643,"ĠLife":4644,"Ġresc":4645,"Ġeas":4646,"appen":4647,"Ġera":4648,"Ġpattern":4649,"ĠLiber":4650,"rid":4651,"Ġleaders":4652,"ĠHistor":4653,"uct":4654,"lam":4655,"Ġpropos":4656,"isco":4657,"ifying":4658,"Ġhabit":4659,"ki":4660,"ĠWeek":4661,"ĠCarl":4662,"Ġpoet":4663,"Ġsout":4664,"Ġhor":4665,"ĠDun":4666,"Ġrisk":4667,"emic":4668,"Ġtrue":4669,"ĠShow":4670,"ĠCommun":4671,"ading":4672,"uled":4673,"Ġwick":4674,"Ġdoing":4675,"Ġstone":4676,"Ġmatter":4677,"ĠCharl":4678,"Ġcriticized":4679,"Ġcontemporary":4680,"Ġactivities":4681,"Ġowned":4682,"illy":4683,"Ġvisited":4684,"acement":4685,"Ġcert":4686,"ocked":4687,"velopment":4688,"Ġinstrument":4689,"Ġhusband":4690,"Ġpieces":4691,"Ġiron":4692,"Ġlaid":4693,"ager":4694,"chest":4695,"ĠRy":4696,"Ġdrug":4697,"Ġcrowd":4698,"ruit":4699,"Ġoccasion":4700,"Ġtermin":4701,"Ġwild":4702,"ĠIll":4703,"ĠCarolina":4704,"ĠBus":4705,"ivity":4706,"elve":4707,"Ġtoward":4708,"ĠFootball":4709,"Ġspeech":4710,"gian":4711,"aylor":4712,"Ġsingles":4713,"ĠCivil":4714,"Ġcomes":4715,"Ġgrowth":4716,"ĠDutch":4717,"ĠRam":4718,"ĠMat":4719,"78":4720,"Ġtrees":4721,"ĠRay":4722,"Ġdefense":4723,"Ġworldwide":4724,"Ġhere":4725,"uls":4726,"Ġterritory":4727,"Ġweight":4728,"Ġtournament":4729,"wing":4730,"acks":4731,"Ġadapt":4732,"ental":4733,"stitution":4734,"Ġstations":4735,"Ġ36":4736,"Ġattract":4737,"Ġshell":4738,"Ġreference":4739,"Ġformation":4740,"Ġeth":4741,"ĠSeveral":4742,"Ġsenior":4743,"Ġreign":4744,"embly":4745,"ners":4746,"aved":4747,"omers":4748,"Ġhall":4749,"odd":4750,"Ġsurre":4751,"ĠDi":4752,"ĠConf":4753,"Ġrainfall":4754,"born":4755,"Ġaffected":4756,"ĠSystem":4757,"Ġhistorian":4758,"resh":4759,"Ġbirds":4760,"Ġmedical":4761,"Ġclaims":4762,"Ġfellow":4763,"ĠEliz":4764,"Ġox":4765,"Ġpict":4766,"ĠBond":4767,"ĠLight":4768,"Ġexec":4769,"Ġcitiz":4770,"phas":4771,"Ġnegoti":4772,"ĠStorm":4773,"Ġnortheast":4774,"ĠLittle":4775,"Ġtherefore":4776,"ĠNorthern":4777,"rael":4778,"Ġmagn":4779,"ĠBackground":4780,"ĠDirect":4781,"Be":4782,"ĠNorm":4783,"eller":4784,"Ġhun":4785,"fully":4786,"Ġtun":4787,"Ġguest":4788,"Ġdispl":4789,"ĠStudios":4790,"ĠTropical":4791,"Ġaccident":4792,"Ġmachine":4793,"Ġreports":4794,"Ġdoub":4795,"azz":4796,"uous":4797,"ĠWork":4798,"Ġchosen":4799,"ĠAdd":4800,"ampion":4801,"Ġstep":4802,"Ġmurder":4803,"39":4804,"Ġuniversity":4805,"rect":4806,"ĠGovernment":4807,"izes":4808,"ledge":4809,"igg":4810,"Ġalone":4811,"Ġfloor":4812,"Ġfrequently":4813,"38":4814,"FA":4815,"Ġtreatment":4816,"ĠFantasy":4817,"ĠDistrict":4818,"Ġleaves":4819,"ĠGuard":4820,"hew":4821,"Ġbul":4822,"Sp":4823,"Ġdog":4824,"Ġsplit":4825,"ĠFre":4826,"Ġsupply":4827,"Ġfollows":4828,"Ġopin":4829,"Ġstra":4830,"ufact":4831,"Ġtrying":4832,"ucky":4833,"Ġfully":4834,"Ġcontest":4835,"Ġdemonstr":4836,"enge":4837,"oles":4838,"ĠLive":4839,"Ġsurrounding":4840,"orter":4841,"water":4842,"onents":4843,"Ġexecutive":4844,"ĠDam":4845,"Ġtwice":4846,"Ġwalls":4847,"Ġgreen":4848,"ĠJul":4849,"This":4850,"clusion":4851,"ety":4852,"Ġgrew":4853,"Ġhyd":4854,"ĠSenate":4855,"Ġpan":4856,"Ġherself":4857,"met":4858,"Ġvalue":4859,"onc":4860,"ĠYoung":4861,"Ġearth":4862,"amber":4863,"gar":4864,"Ġbillion":4865,"tar":4866,"Ġsetting":4867,"ĠPenns":4868,"Ġhorses":4869,"Ġwounded":4870,"Ġpasses":4871,"Ã¨":4872,"Ġmaintained":4873,"ĠRog":4874,"Ġescape":4875,"utation":4876,"Ġgovernor":4877,"Ġring":4878,"Ġaccompan":4879,"ultural":4880,"lers":4881,"oma":4882,"ĠDuke":4883,"ancing":4884,"Ġpaper":4885,"lement":4886,"Ġlabel":4887,"Ġrailway":4888,"ĠOcean":4889,"Ġ1989":4890,"ĠOrig":4891,"TC":4892,"ĠField":4893,"ographer":4894,"ĠGal":4895,"Ġplanet":4896,"Ġdrum":4897,"gend":4898,"ĠGovernor":4899,"ocated":4900,"ĠSub":4901,"Ġdyn":4902,"aming":4903,"andy":4904,"worth":4905,"Ġmanufact":4906,"Ġopposed":4907,"Ġauthority":4908,"Ġchose":4909,"igr":4910,"antly":4911,"ĠBey":4912,"Ġparticipated":4913,"Ġcondition":4914,"Ġwebsite":4915,"36":4916,"ĠRos":4917,"Although":4918,"ĠAllied":4919,"ĠScottish":4920,"Ġcell":4921,"isf":4922,"ãĤ":4923,"ĠBre":4924,"ski":4925,"anda":4926,"Ġnewly":4927,"itled":4928,"Ġ32":4929,"BA":4930,"For":4931,"Ġcannot":4932,"Ġentr":4933,"Ã¤":4934,"uses":4935,"ĠHolly":4936,"attle":4937,"ĠChart":4938,"Ġmoment":4939,"enger":4940,"Ġattrib":4941,"ilies":4942,"With":4943,"udget":4944,"imens":4945,"Ġdraft":4946,"amm":4947,"Ġcasual":4948,"ĠGood":4949,"Ġvote":4950,"ĠMarsh":4951,"ĠDaniel":4952,"isters":4953,"ĠPen":4954,"pton":4955,"Ġphil":4956,"Ġfilming":4957,"ĠFestival":4958,"Ġeditor":4959,"ables":4960,"ĠTem":4961,"Ġheard":4962,"Ġremark":4963,"ĠHomer":4964,"Ġopposition":4965,"orship":4966,"ype":4967,"76":4968,"Ġagg":4969,"Ġtypically":4970,"Ġadopted":4971,"osh":4972,"Ġproducers":4973,"ĠEastern":4974,"Ġbenef":4975,"Ġut":4976,"Ġterr":4977,"Ġunknown":4978,"Ġbasis":4979,"Ġfan":4980,"Ġlosing":4981,"ĠCorn":4982,"ĠHard":4983,"ĠKar":4984,"Ġexperiment":4985,"Ġrang":4986,"Ġorders":4987,"Ġadvanced":4988,"Ġsle":4989,"Ġelement":4990,"ura":4991,"Ġnewspaper":4992,"Ġactors":4993,"ĠCastle":4994,"Ġsevere":4995,"Ġadvant":4996,"ĠDev":4997,"Ġcontained":4998,"Ġextend":4999,"Ġcouncil":5000,"ĠIslands":5001,"Ġsimply":5002,"eg":5003,"Ġends":5004,"Ġbal":5005,"iner":5006,"Ġbit":5007,"imet":5008,"estic":5009,"Ġprompt":5010,"ĠLew":5011,"Ġextr":5012,"Ġsquadron":5013,"Ġcolor":5014,"ĠPolish":5015,"Ġdoll":5016,"Ġcompar":5017,"Ġcamer":5018,"Ġarms":5019,"ĠWilson":5020,"rig":5021,"Ġoperated":5022,"Ġabandoned":5023,"isers":5024,"ĠSound":5025,"Ġrival":5026,"erc":5027,"ĠReception":5028,"Ġconsecutive":5029,"ĠPennsylvania":5030,"kin":5031,"Ġlives":5032,"ĠJersey":5033,"Ġcoal":5034,"Ġhomes":5035,"Ġhappen":5036,"Ġprin":5037,"Ġindividuals":5038,"ĠBecause":5039,"Ġagreement":5040,"Ġpsych":5041,"Ġcapacity":5042,"ĠTop":5043,"apers":5044,"Ġemphas":5045,"ĠChristmas":5046,"room":5047,"Ġincident":5048,"ĠJon":5049,"era":5050,"ĠRod":5051,"Ġworkers":5052,"Ġfilmed":5053,"iana":5054,"Ġcriticism":5055,"ĠTaylor":5056,"iated":5057,"Ġfired":5058,"Ġevac":5059,"Ġdismiss":5060,"Ġhonor":5061,"ĠAlbert":5062,"ĠHome":5063,"Ġcreating":5064,"Ġsens":5065,"ima":5066,"Ġrom":5067,"ĠNight":5068,"32":5069,"Ġfailure":5070,"imal":5071,"Ġnative":5072,"Ġsequence":5073,"Ġfeed":5074,"47":5075,"ĠTra":5076,"Ġguard":5077,"friend":5078,"ĠJud":5079,"Ġserving":5080,"ĠTech":5081,"Ġoffensive":5082,"ĠAlexander":5083,"Ġ300":5084,"Ġweak":5085,"Ġlaunch":5086,"Ġextra":5087,"'ve":5088,"wick":5089,"ĠCoast":5090,"ĠCard":5091,"Ġfuel":5092,"Ġdeploy":5093,"49":5094,"ifications":5095,"Ġsail":5096,"Ġminute":5097,"Ġelev":5098,"ĠGall":5099,"US":5100,"ĠElizabeth":5101,"inger":5102,"Ġbey":5103,"Ġbodies":5104,"ĠColon":5105,"ĠAndrew":5106,"Ġbass":5107,"Ġspring":5108,"Ġroles":5109,"Ġachieved":5110,"Ġnarr":5111,"Ġspirit":5112,"ĠSpain":5113,"aby":5114,"Ġ179":5115,"ĠBor":5116,"Ġenter":5117,"ocks":5118,"Ġmeasure":5119,"Ġswe":5120,"ĠSquare":5121,"ienced":5122,"ĠPers":5123,"Ġbeyond":5124,"mosp":5125,"Ġregarded":5126,"Ġideas":5127,"onent":5128,"Ġchalleng":5129,"Ġbelieve":5130,"iny":5131,"ĠBeat":5132,"Ġfaced":5133,"Ġdegree":5134,"Ġdisease":5135,"Ġfair":5136,"ĠGirl":5137,"ĠInstitute":5138,"Ġcontact":5139,"Ġgrowing":5140,"ulture":5141,"aith":5142,"Ġprogress":5143,"Ġbriefly":5144,"edom":5145,"ented":5146,"Ġmob":5147,"standing":5148,"Ġ38":5149,"Ġmaster":5150,"Ġstrike":5151,"ĠJoe":5152,"oh":5153,"Ġur":5154,"Ġfamous":5155,"Ġnarrow":5156,"Ġreceive":5157,"eanwhile":5158,"Ġretired":5159,"aver":5160,"Ġtask":5161,"Ġnothing":5162,"ĠHung":5163,"Ġsports":5164,"ĠExp":5165,"Ġflying":5166,"Ġhistorical":5167,"ĠBoard":5168,"Ġast":5169,"ĠDet":5170,"ĠJac":5171,"Ġroads":5172,"Ġspect":5173,"Ġgranted":5174,"Ġkilling":5175,"Ġkilometres":5176,"Ġrejected":5177,"While":5178,"avalry":5179,"Ġpack":5180,"Ġpoll":5181,"Ġadministration":5182,"ĠLand":5183,"ĠOperation":5184,"Ġtower":5185,"Ġsilver":5186,"iments":5187,"Ġinterchange":5188,"ĠMike":5189,"ourney":5190,"Ġleadership":5191,"Ġinte":5192,"Ġrepeated":5193,"Ġwor":5194,"Ġnecessary":5195,"Ġtwelve":5196,"Ġnegative":5197,"Ġpersonnel":5198,"31":5199,"stream":5200,"ii":5201,"ĠRom":5202,"stead":5203,"ĠCat":5204,"Ġplants":5205,"iÄĩ":5206,"Ġnormal":5207,"Ġdata":5208,"ĠBart":5209,"ĠIrish":5210,"Ġextensive":5211,"Ġimproved":5212,"Ġinfantry":5213,"outs":5214,"Ġdescribes":5215,"adelph":5216,"Ġpet":5217,"roll":5218,"Ġload":5219,"rif":5220,"Ġturns":5221,"Ġfranch":5222,"uate":5223,"Ġkick":5224,"Following":5225,"Ġexpanded":5226,"oted":5227,"Ġdrive":5228,"Ġcolumn":5229,"Ġsuccessfully":5230,"Ġ1987":5231,"oln":5232,"Ġ1988":5233,"Ġinh":5234,"Ġliber":5235,"Ġsolo":5236,"Ġparalle":5237,"haps":5238,"Ġmanagement":5239,"Ġperman":5240,"Ġdiam":5241,"Ġtree":5242,"Ġlearn":5243,"Ġlands":5244,"Ġvehicles":5245,"inals":5246,"uan":5247,"Ġchair":5248,"SB":5249,"46":5250,"etball":5251,"ella":5252,"icial":5253,"Ġrid":5254,"adelphia":5255,"wall":5256,"olid":5257,"Ġeye":5258,"akers":5259,"appy":5260,"Ġsuggests":5261,"etts":5262,"Ġplaces":5263,"ĠIsrael":5264,"col":5265,"Ġeffective":5266,"Ġtorpedo":5267,"Ġ75":5268,"ĠCub":5269,"Ġimag":5270,"Ġlanding":5271,"ĠGerm":5272,"Ġcrossing":5273,"Ġbroken":5274,"Ġdeliver":5275,"Ġanimal":5276,"ĠDoctor":5277,"Ġcaught":5278,"Ġarticle":5279,"ĠLind":5280,"Ġcommittee":5281,"Ġexpress":5282,"ĠMul":5283,"umes":5284,"ava":5285,"ĠRevolution":5286,"ĠAlbum":5287,"Ġauthorities":5288,"ĠCy":5289,"ĠBul":5290,"ĠSecretary":5291,"Ġexpansion":5292,"ĠRepublican":5293,"ĠHy":5294,"amin":5295,"ĠLike":5296,"Ġunsu":5297,"ba":5298,"orus":5299,"Ġtypes":5300,"Ġfought":5301,"Ġacquired":5302,"Ġmis":5303,"Ġtable":5304,"ĠLo":5305,"Ġancient":5306,"Ġprefer":5307,"ĠFam":5308,"ipl":5309,"ĠOhio":5310,"state":5311,"Ġislands":5312,"illing":5313,"ĠSund":5314,"ĠWild":5315,"Ġcontain":5316,"Ġheadquarters":5317,"fort":5318,"restling":5319,"gent":5320,"ĠArthur":5321,"34":5322,"agement":5323,"ĠBroad":5324,"Ġpossibly":5325,"Ġcreation":5326,"iverpool":5327,"Ġgives":5328,"agan":5329,"Ġintellig":5330,"ĠPublic":5331,"ĠHarry":5332,"Ġglob":5333,"ĠClark":5334,"ĠPhiladelphia":5335,"ĠBlue":5336,"uting":5337,"ishes":5338,"ĠWars":5339,"ĠAre":5340,"Ġrecently":5341,"ĠBraz":5342,"tendo":5343,"ĠMen":5344,"Ġrear":5345,"Ġcomedy":5346,"gn":5347,"Ġstraight":5348,"kins":5349,"Ġhousehold":5350,"Ġsuppor":5351,"Ġupgr":5352,"Ġexplos":5353,"Ġnuclear":5354,"Ġdecre":5355,"no":5356,"Ġgenus":5357,"ĠWrit":5358,"Ġadvert":5359,"ĠThough":5360,"ĠMid":5361,"Ġwithdraw":5362,"Ġfinds":5363,"ĠGeorgia":5364,"ĠMD":5365,"ĠFurther":5366,"edd":5367,"ĠRet":5368,"ĠFer":5369,"Ġmentioned":5370,"Ġarmed":5371,"mouth":5372,"Ġroof":5373,"Ġfamilies":5374,"Ġ\"[":5375,"Ġacad":5376,"Ġsets":5377,"Ġbattalion":5378,"Ġcenturies":5379,"ĠBefore":5380,"Ġ1939":5381,"bar":5382,"Ġaim":5383,"ĠElect":5384,"Ġunf":5385,"cont":5386,"ĠUl":5387,"Ġseventh":5388,"Ġorganized":5389,"respond":5390,"Ġdial":5391,"atures":5392,"Ġsecurity":5393,"Station":5394,"Ġcommissioned":5395,"Ġprotect":5396,"bro":5397,"apore":5398,"Ġcontributed":5399,"Ġstay":5400,"American":5401,"ĠRussia":5402,"Ġthemes":5403,"Ġnorthwest":5404,"Ġdetermined":5405,"oz":5406,"ulate":5407,"Ġawards":5408,"Ġfinish":5409,"Ġwave":5410,"Ġstreet":5411,"ĠBru":5412,"inity":5413,"Ġyounger":5414,"Ġflooding":5415,"Ġprovides":5416,"Ġillust":5417,"ĠProt":5418,"Ġdrop":5419,"Ġarrival":5420,"Ġtitles":5421,"Ġ1986":5422,"incoln":5423,"uzz":5424,"Ġsinging":5425,"ĠAsia":5426,"ĠCambridge":5427,"Ġpowers":5428,"Ġbott":5429,"ĠEnd":5430,"Ġcommonly":5431,"Ġpurchased":5432,"Ġceremony":5433,"hol":5434,"Ġentirely":5435,"Ġexpedition":5436,"bound":5437,"Ġfish":5438,"Ġsoft":5439,"Ġfat":5440,"ĠFrancisco":5441,"Ġlocations":5442,"ĠProduction":5443,"Ġthing":5444,"ĠLy":5445,"Ġyellow":5446,"ĠHead":5447,"Ġtouchdown":5448,"Ġadvantage":5449,"Ġmist":5450,"ĠWW":5451,"ĠEach":5452,"part":5453,"Ġaccompanied":5454,"ĠLes":5455,"ceived":5456,"ĠNintendo":5457,"Ġscheduled":5458,"Ġatmosp":5459,"Ġchoice":5460,"Ġconvers":5461,"ĠFar":5462,"Ġdefensive":5463,"Ġheight":5464,"Ġreflect":5465,"ĠEarl":5466,"ĠSher":5467,"usc":5468,"ĠColumbia":5469,"Ġbudget":5470,"break":5471,"ĠHit":5472,"Ġresemb":5473,"ĠMir":5474,"ĠUs":5475,"Ġdidn":5476,"ĠPrime":5477,"ora":5478,"ĠJer":5479,"Ġ37":5480,"ĠKorean":5481,"ilton":5482,"season":5483,"ĠOffice":5484,"48":5485,"after":5486,"Ġcomputer":5487,"ashion":5488,"awa":5489,"Ġreact":5490,"Ġroll":5491,"Ġtry":5492,"ĠCommon":5493,"Ġdrama":5494,"mun":5495,"Ġsquad":5496,"ĠFe":5497,"ĠCD":5498,"box":5499,"Ġfiction":5500,"with":5501,"rons":5502,"lim":5503,"yles":5504,"Ġconsists":5505,"zant":5506,"Ġunique":5507,"Ġphilos":5508,"zer":5509,"Ġclosely":5510,"Ġcricket":5511,"ĠLiverpool":5512,"ĠMov":5513,"racted":5514,"Ġsession":5515,"Ġ150":5516,"Ġfacilities":5517,"Ġdefence":5518,"Ġwhy":5519,"ĠPlayStation":5520,"Ġbat":5521,"65":5522,"ĠBrazil":5523,"Ġdedicated":5524,"ĠPerson":5525,"ĠLincoln":5526,"Ġelimin":5527,"Ġstrik":5528,"ĠAsh":5529,"Ġ1968":5530,"ĠÎ":5531,"Ġvo":5532,"Ġpurpose":5533,"Ġtrains":5534,"Ġcultural":5535,"Ġunus":5536,"elly":5537,"Ġfirm":5538,"isa":5539,"Ġdeck":5540,"Ġintensity":5541,"Ġperforming":5542,"ĠMah":5543,"Ġla":5544,"Ġgraph":5545,"osa":5546,"ĠRailway":5547,"ĠGil":5548,"Ġvari":5549,"ĠVen":5550,"ilding":5551,"Ġcalls":5552,"Ġbelong":5553,"Ġregions":5554,"ĠBalt":5555,"Ġstructures":5556,"Ã¸":5557,"ults":5558,"Ġdefin":5559,"aching":5560,"ĠRel":5561,"ĠGi":5562,"Ġlic":5563,"Ġreceiving":5564,"Ġmic":5565,"ano":5566,"Ġselection":5567,"Ġpiano":5568,"ĠEp":5569,"Ġopportunity":5570,"cles":5571,"ĠHay":5572,"ĠRol":5573,"Ġsupporting":5574,"inth":5575,"Ġshark":5576,"ĠDisney":5577,"Ġprotection":5578,"ĠCarey":5579,"ua":5580,"Ġegg":5581,"Ġengaged":5582,"Ġpros":5583,"Ġ34":5584,"Ġcorrespond":5585,"ĠSingapore":5586,"Ġcurrently":5587,"ĠOf":5588,"FL":5589,"ĠJr":5590,"ĠOlympic":5591,"Ġobserv":5592,"Ġaid":5593,"Ġfix":5594,"Ġnotable":5595,"ĠGermans":5596,"produ":5597,"unior":5598,"omic":5599,"ĠGulf":5600,"Ġcontaining":5601,"ĠConference":5602,"Ġcharts":5603,"ĠBrook":5604,"ĠDevelopment":5605,"burgh":5606,"ĠBurn":5607,"enc":5608,"All":5609,"ifically":5610,"Ġprotected":5611,"Ġexperienced":5612,"ĠChild":5613,"\";":5614,"Ġcomic":5615,"Ġlabor":5616,"Ġshooting":5617,"opher":5618,"Ġsport":5619,"Ġproviding":5620,"ĠHun":5621,"Ġcitizens":5622,"run":5623,"Ġfresh":5624,"ĠByzant":5625,"aka":5626,"Ġmotor":5627,"avel":5628,"ĠAnderson":5629,"Ġcry":5630,"Ġrecon":5631,"Ġmerch":5632,"AR":5633,"ĠOrder":5634,"ĠShort":5635,"Ġrapidly":5636,"Ġmouth":5637,"Ġhair":5638,"Ġhired":5639,"Ġsites":5640,"eor":5641,"300":5642,"55":5643,"ali":5644,"Ġnob":5645,"Ġcasualties":5646,"vest":5647,"yph":5648,"ĠJewish":5649,"ĠPot":5650,"Ġtrail":5651,"ĠPress":5652,"Ġtail":5653,"Ġbranch":5654,"Ġscholars":5655,"Ġconcer":5656,"Ġsac":5657,"Ġeyes":5658,"Ġgain":5659,"ĠEmperor":5660,"ĠMot":5661,"Ġindustrial":5662,"Ġ1967":5663,"Ġalle":5664,"essed":5665,"Ġadap":5666,"Ġmountain":5667,"heim":5668,"Ġlap":5669,"Ġcold":5670,"ĠJean":5671,"Ġanalysis":5672,"Ġ1985":5673,"Ġeconomy":5674,"Ġrecognized":5675,"Ġpublication":5676,"ĠPu":5677,"oncÃ©":5678,"ĠDemocratic":5679,"ĠTam":5680,"eral":5681,"Ġresident":5682,"ĠVol":5683,"ographic":5684,"Ġholding":5685,"Ġparallel":5686,"omew":5687,"yer":5688,"Ġvac":5689,"va":5690,"Ġextrem":5691,"Ġbeaut":5692,"66":5693,"ĠCa":5694,"otic":5695,"Ġ1914":5696,"Ġlosses":5697,"rence":5698,"Ġfocused":5699,"Ġstrengthe":5700,"ati":5701,"itche":5702,"ĠBas":5703,"Ġchance":5704,"ologist":5705,"Ġsimple":5706,"iful":5707,"put":5708,"inking":5709,"Ġdigital":5710,"ĠSS":5711,"One":5712,"Ã¡n":5713,"ĠBank":5714,"Ġvon":5715,"Ġrot":5716,"Ġdry":5717,"Ġtransform":5718,"lar":5719,"Ġtim":5720,"Ġmotion":5721,"Ġrise":5722,"ĠMiller":5723,"Ġreaction":5724,"Ġ1918":5725,"Ġviewed":5726,"Ġec":5727,"ĠHon":5728,"Ġprote":5729,"Ġdeveloping":5730,"ĠLewis":5731,"Ġ1984":5732,"Ġletters":5733,"Ġbands":5734,"ĠDie":5735,"Ġquite":5736,"Ġbelief":5737,"ĠConn":5738,"Ġintersection":5739,"Ġcart":5740,"Ġsignificantly":5741,"Ġshared":5742,"ĠKir":5743,"Ġvisual":5744,"wise":5745,"Ġmut":5746,"ĠAlso":5747,"long":5748,"achus":5749,"Ġven":5750,"sey":5751,"ĠHMS":5752,"ĠDaily":5753,"Ġfranchise":5754,"come":5755,"Ġliterature":5756,"Ġworth":5757,"Ġoccupied":5758,"asty":5759,"Ġthrow":5760,"ĠRome":5761,"ĠAddition":5762,"oir":5763,"lan":5764,"ĠChap":5765,"Ġwitness":5766,"ĠLab":5767,"Ġmoder":5768,"Ġunsuccess":5769,"ĠShak":5770,"Ġconference":5771,"unte":5772,"theless":5773,"ĠThrough":5774,"Ġsteel":5775,"Ġinstruct":5776,"ĠGrant":5777,"onder":5778,"ato":5779,"Ġactress":5780,"Ġ33":5781,"Ġheads":5782,"Ġapproved":5783,"rad":5784,"Ġgameplay":5785,"Ġtechnology":5786,"Ġsymbol":5787,"77":5788,"gers":5789,"ropri":5790,"Ġknew":5791,"85":5792,"Ġprojects":5793,"Ġexisting":5794,"ĠHollywood":5795,"Ġtemperature":5796,"Ġassault":5797,"Ġreasons":5798,"ĠGib":5799,"Ġcars":5800,"Ġgoes":5801,"Ġstoryline":5802,"Ġneighbor":5803,"Ġsteam":5804,"ĠSa":5805,"itors":5806,"ĠSerb":5807,"64":5808,"Ġharm":5809,"Ġdescend":5810,"Ġsecondary":5811,"acter":5812,"Ġrules":5813,"onym":5814,"Ġmyth":5815,"ĠRadio":5816,"ĠWel":5817,"ĠNever":5818,"ients":5819,"ĠSyd":5820,"life":5821,"ĪĴ":5822,"Ġcab":5823,"verse":5824,"Ġpopularity":5825,"Ġresistance":5826,"ĠLieutenant":5827,"icts":5828,"Ġsemi":5829,"Ġsave":5830,"Ġmounted":5831,"Ġsubstant":5832,"Ġedge":5833,"Ġpainting":5834,"ĠLar":5835,"Ġlb":5836,"istan":5837,"Ġprepared":5838,"ĠWalter":5839,"According":5840,"ĠSupreme":5841,"ĠNHL":5842,"ules":5843,"ods":5844,"Ġdeclined":5845,"Ġinjured":5846,"Ġsand":5847,"Ġsort":5848,"Ġcomposition":5849,"Ġopinion":5850,"Jo":5851,"Ġdaily":5852,"Ġ1964":5853,"Ġanything":5854,"ĠPrinc":5855,"ĠPeople":5856,"Ġreputation":5857,"osl":5858,"ader":5859,"ĠDavis":5860,"Ġundert":5861,"ulpt":5862,"Ġenjoyed":5863,"ĠSR":5864,"ĠKey":5865,"Ġrob":5866,"gal":5867,"Ġadding":5868,"ĠWater":5869,"Ġ1969":5870,"ĠCommand":5871,"ĊĊĊ":5872,"Ġbrown":5873,"oral":5874,"rett":5875,"Ġwa":5876,"Ġexact":5877,"Ġagent":5878,"ĠPoint":5879,"organ":5880,"iform":5881,"Ġ#":5882,"Ġdrew":5883,"ĠKentucky":5884,"ĠOlympics":5885,"Ġadult":5886,"Ġlooking":5887,"Ġmuseum":5888,"Ġboat":5889,"Ġregarding":5890,"Ġurban":5891,"Ġnor":5892,"achusetts":5893,"bell":5894,"Ġseat":5895,"Ġbrothers":5896,"Ġisol":5897,"ĠIndust":5898,"rets":5899,"Ġhyp":5900,"ĠSix":5901,"ĠStation":5902,"Ġpitch":5903,"Ġemployed":5904,"Ġshall":5905,"ĠFall":5906,"ĠAv":5907,"ĠJenn":5908,"athan":5909,"Ġselling":5910,"ĠSummer":5911,"ordon":5912,"iter":5913,"Un":5914,"ĠHa":5915,"ĠProv":5916,"Ġshape":5917,"Ġcard":5918,"Ġallows":5919,"Ġconverted":5920,"ĠBell":5921,"ĠUpon":5922,"Ġagric":5923,"Ġestate":5924,"Ġviews":5925,"ĠNorway":5926,"Ġstages":5927,"osis":5928,"Ġpoem":5929,"Ġcalc":5930,"ĠTurn":5931,"Ġstanding":5932,"ĠKen":5933,"ĠBrian":5934,"Ġ1983":5935,"ĠSu":5936,"ĠDark":5937,"ĠAtt":5938,"Ġapproached":5939,"zen":5940,"ĠMas":5941,"ĠSand":5942,"ira":5943,"Ġjourney":5944,"Ġcited":5945,"ĠMassachusetts":5946,"Ġresponded":5947,"Ġign":5948,"ĠAirport":5949,"Man":5950,"Ġstadium":5951,"Ġroughly":5952,"Ġsubmar":5953,"eman":5954,"Ġ1966":5955,"apes":5956,"Ġretire":5957,"79":5958,"Ġdrawn":5959,"dd":5960,"Ġrac":5961,"Ġalternative":5962,"Ġdistingu":5963,"psons":5964,"Ġescort":5965,"ĠFair":5966,"Ġincreasingly":5967,"Ġgetting":5968,"ĠKa":5969,"ĠSpecial":5970,"Ġsun":5971,"ĠDown":5972,"ignment":5973,"ĠTro":5974,"Ġcells":5975,"Ġsucceeded":5976,"ĠMos":5977,"Ġexerc":5978,"Ġcollected":5979,"Ġplanning":5980,"Ġrenamed":5981,"Ġwealth":5982,"leton":5983,"ĠNap":5984,"lee":5985,"ĠBase":5986,"Ġ1972":5987,"foot":5988,"ĠEven":5989,"Ġcolle":5990,"Ġknowledge":5991,"uration":5992,"Ġconnected":5993,"Ġ48":5994,"Ġ1965":5995,"Ġmodels":5996,"onia":5997,"Ġsustained":5998,"Ġmissing":5999,"Ġrebu":6000,"Ġconstitution":6001,"Ġ1971":6002,"Ġoccas":6003,"arp":6004,"ĠGreg":6005,"ĠPhilipp":6006,"equ":6007,"ĠTen":6008,"Ġsafety":6009,"unicip":6010,"ĠWhit":6011,"ĠHan":6012,"ĠSteve":6013,"Ġlearned":6014,"Ġ49":6015,"lease":6016,"istol":6017,"Ġintroduction":6018,"Ġturning":6019,"ĠPrem":6020,"Don":6021,"iling":6022,"lane":6023,"ĠBeyoncÃ©":6024,"AC":6025,"ĠBern":6026,"\"),":6027,"uro":6028,"ĠIndepend":6029,"spec":6030,"ĠLady":6031,"real":6032,"Ġexistence":6033,"AT":6034,"struct":6035,"Ġdesigns":6036,"Ġbaseball":6037,"icks":6038,"Ġlimit":6039,"Ġimprove":6040,"ela":6041,"ources":6042,"Ġvolume":6043,"Ġburied":6044,"Ġweakened":6045,"ĠRoss":6046,"Ġoperating":6047,"Ġflu":6048,"ko":6049,"Ġrend":6050,"Ġoverl":6051,"ĠAbb":6052,"Ġfit":6053,"iger":6054,"Ġshowing":6055,"Ġlandfall":6056,"Ġlasted":6057,"rate":6058,"oli":6059,"Ġhumans":6060,"Ġpromotion":6061,"Ġperfect":6062,"Ġscale":6063,"atus":6064,"oday":6065,"apped":6066,"Ġacres":6067,"Ġ1982":6068,"Ġequal":6069,"Ġearliest":6070,"Ġpul":6071,"ĠWomen":6072,"Ġexchange":6073,"Ġyouth":6074,"ĠSimpsons":6075,"Ġ1979":6076,"Ġproceed":6077,"Ġdescription":6078,"hi":6079,"Ġbor":6080,"ĠHart":6081,"Ġsettlement":6082,"iller":6083,"Ġretained":6084,"ivalent":6085,"Ġboats":6086,"eler":6087,"char":6088,"Äģ":6089,"Ġprograms":6090,"ivered":6091,"inary":6092,"Ġfreeway":6093,"issance":6094,"Ġjoint":6095,"ĠSongs":6096,"Ġappoint":6097,"Ġplayoff":6098,"Ġrhy":6099,"Ġ1917":6100,"Ġstore":6101,"ĠNaz":6102,"Ġpaint":6103,"ĠGra":6104,"Ġinstall":6105,"Ġreplace":6106,"insula":6107,"Ġimpl":6108,"Ġ1974":6109,"Ġcool":6110,"inner":6111,"rell":6112,"Ġ1975":6113,"othes":6114,"iege":6115,"GN":6116,"reets":6117,"Ġnick":6118,"Ġstatement":6119,"ĠSydney":6120,"math":6121,"Ġentrance":6122,"avig":6123,"Ġreserve":6124,"Ġeasily":6125,"Ġhydro":6126,"tic":6127,"Ġapplied":6128,"ĠPoland":6129,"ĠVietnam":6130,"ĠAmong":6131,"Ġathlet":6132,"ĠNaval":6133,"ĠCape":6134,"tical":6135,"ĠSus":6136,"eper":6137,"Ġitems":6138,"BS":6139,"Ġconsequ":6140,"Ġ1946":6141,"ĠOttoman":6142,"Ġassistant":6143,"ads":6144,"Ġdepth":6145,"engers":6146,"Ġtowns":6147,"Ġcredited":6148,"Ġtrip":6149,"iration":6150,"Ġgradually":6151,"western":6152,"Ġgenre":6153,"izations":6154,"Ġarranged":6155,"ĠUN":6156,"Ġcandidate":6157,"ĠSel":6158,"Ġsculpt":6159,"Ġcore":6160,"Ġcoastal":6161,"44":6162,"Ġindicated":6163,"ĠBowl":6164,"Ġdomestic":6165,"eless":6166,"Ġpolitics":6167,"Ġstopped":6168,"ĠMu":6169,"Ġmaintain":6170,"Ġdetails":6171,"which":6172,"Å¡":6173,"ushing":6174,"Ġdistribution":6175,"Ġgross":6176,"ĠDue":6177,"Ġ1973":6178,"eke":6179,"ĠBall":6180,"Ġlaws":6181,"Ġsupplies":6182,"ĠMTV":6183,"ÅĤ":6184,"Ġhits":6185,"night":6186,"lik":6187,"ctions":6188,"Ġadvent":6189,"Ġengines":6190,"Ġviolence":6191,"ĠImperial":6192,"Ġways":6193,"Ġcontrolled":6194,"Ġcarrying":6195,"Ġscientific":6196,"Ġtrust":6197,"ĠMain":6198,"ĠIV":6199,"Ġparties":6200,"Ġerr":6201,"mann":6202,"emies":6203,"ĠGolden":6204,"ĠStadium":6205,"ĠMcG":6206,"Ġcombination":6207,"Ġtact":6208,"Ġseems":6209,"ĠColonel":6210,"Ġsoutheast":6211,"Ġunp":6212,"Ġ400":6213,"Ġdelivered":6214,"Ġbattery":6215,"Ġprisoners":6216,"Ġsections":6217,"ĠRon":6218,"ender":6219,"Ġappeal":6220,"Ġ1976":6221,"ĠPlan":6222,"ĠMaryland":6223,"ador":6224,"poration":6225,"iques":6226,"pet":6227,"level":6228,"urrent":6229,"Ġstream":6230,"ĠVi":6231,"Ġcinem":6232,"Ġacts":6233,"idden":6234,"inois":6235,"Ġvan":6236,"Ġentitled":6237,"hat":6238,"ashed":6239,"Ġsecure":6240,"iversary":6241,"ĠPict":6242,"ĠStew":6243,"ropol":6244,"Ġbask":6245,"ĠMeanwhile":6246,"ĠConfeder":6247,"Ġregiment":6248,"Ġinvestigation":6249,"Ġtall":6250,"ĠArts":6251,"Ġauth":6252,"Ġ1948":6253,"Ġ1915":6254,"Ġknots":6255,"Ġevening":6256,"Ġonline":6257,"ĠTheatre":6258,"ĠMoore":6259,"Ġsurvived":6260,"Ġdeaths":6261,"Ġproposal":6262,"ja":6263,"Ġroutes":6264,"iy":6265,"Ġbought":6266,"Ġneut":6267,"Ġselect":6268,"ta":6269,"ighters":6270,"ieval":6271,"hus":6272,"Ġwars":6273,"Ġmessage":6274,"ĠBad":6275,"ĠEdu":6276,"Ġperhaps":6277,"aug":6278,"Ġmales":6279,"ĠReview":6280,"Ġaddress":6281,"Ġwr":6282,"aked":6283,"ansas":6284,"Ġthreatened":6285,"yphoon":6286,"Ġtal":6287,"power":6288,"Ġreduce":6289,"ĠBal":6290,"Ġrecalled":6291,"Ġbed":6292,"bourne":6293,"ingly":6294,"ĠBra":6295,"69":6296,"Ġ55":6297,"Ġindependence":6298,"ez":6299,"Ġdownload":6300,"ician":6301,"ervative":6302,"aints":6303,"Ġvoted":6304,"Ġcontroversy":6305,"ĠAri":6306,"Ġvirt":6307,"Ġwrites":6308,"ĠWalk":6309,"chers":6310,"Ġcauses":6311,"Ġreligion":6312,"Ġimplement":6313,"Ġtick":6314,"Ġexclus":6315,"othing":6316,"Ġ39":6317,"ĠOnly":6318,"aki":6319,"Ġago":6320,"Ġregister":6321,"Ġkingdom":6322,"ĠStaff":6323,"Ġdepend":6324,"Ġ65":6325,"ĠSpring":6326,"Ġmeters":6327,"senal":6328,"Ġstudied":6329,"entially":6330,"Ġadapted":6331,"Ġtanks":6332,"68":6333,"Ġ1916":6334,"ĠMulder":6335,"ĠRhodes":6336,"Ġreferences":6337,"Ġfinding":6338,"aware":6339,"ĠMemorial":6340,"ĠImp":6341,"ĠBarb":6342,"Ġconvin":6343,"Ġdecade":6344,"Ġimportance":6345,"wich":6346,"ĠBand":6347,"fess":6348,"Ġaware":6349,"ĠNick":6350,"mb":6351,"Ġorchest":6352,"Ġportrayed":6353,"anean":6354,"Ġarrested":6355,"ĠAD":6356,"ĠKong":6357,"Ġcamera":6358,"Ġfict":6359,"Ġwatched":6360,"Ġarc":6361,"ĠJes":6362,"law":6363,"Ġcatch":6364,"Ġnomination":6365,"Ġconcerns":6366,"Ġteacher":6367,"ĠUnivers":6368,"Ġfashion":6369,"Ġstret":6370,"ocal":6371,"Ġglass":6372,"ĠSingles":6373,"ca":6374,"star":6375,"ĠGordon":6376,"Ġinvited":6377,"Ġremainder":6378,"ĠJay":6379,"Ġadmitted":6380,"Ġpreced":6381,"BI":6382,"ordan":6383,"Ġproducing":6384,"ĠOnce":6385,"67":6386,"ĠAge":6387,"ĠVill":6388,"Ġdefined":6389,"Ġspecifically":6390,"Ġcorner":6391,"Ġrow":6392,"Ġoffers":6393,"espread":6394,"ĠPlot":6395,"Ġruled":6396,"Ġoverse":6397,"Ġretreat":6398,"ĠVar":6399,"Ġwinner":6400,"Ġban":6401,"ĠBon":6402,"osaurus":6403,"ilation":6404,"sex":6405,"ĠBeach":6406,"Ġfunds":6407,"John":6408,"imp":6409,"Ġinterested":6410,"hr":6411,"itage":6412,"Ġ1981":6413,"Ġstarts":6414,"abb":6415,"Ġinternal":6416,"Ġones":6417,"Ġrecommended":6418,"Ġlov":6419,"Ġinstalled":6420,"Ġobjects":6421,"ĠConstant":6422,"Ġsell":6423,"Ġshut":6424,"Ġcapable":6425,"Ġfemales":6426,"Ġcampus":6427,"Ġproducts":6428,"gency":6429,"Bl":6430,"Ġopera":6431,"Ġcrossed":6432,"Ġuns":6433,"ĠJan":6434,"rete":6435,"Ġcrime":6436,"Ġcomposer":6437,"Ġactual":6438,"Ġimpr":6439,"Ġsouthwest":6440,"Ġphase":6441,"da":6442,"erted":6443,"Ġaw":6444,"Ġpromote":6445,"cluding":6446,"Ġtell":6447,"ĠBir":6448,"ĠInstead":6449,"Ġgrounds":6450,"osite":6451,"600":6452,"Ġsnow":6453,"ĠGram":6454,"Ġnote":6455,"borne":6456,"Ġduties":6457,"Ġsomew":6458,"AAF":6459,"Ġ1919":6460,"Ġmedal":6461,"Ġconqu":6462,"Ġshel":6463,"Ġbottom":6464,"vements":6465,"Ġtank":6466,"Ġflat":6467,"Ġmilit":6468,"ĠJustice":6469,"Ġrelief":6470,"Ġstock":6471,"Ġpenal":6472,"Ġdates":6473,"Ġsynthe":6474,"Ġhotel":6475,"Ġprice":6476,"43":6477,"burn":6478,"emed":6479,"Ġcharged":6480,"Ġprincipal":6481,"Ġacid":6482,"Ġextension":6483,"Ġdecades":6484,"ĠUTC":6485,"ĠPass":6486,"elson":6487,"ĠAbout":6488,"Ġextremely":6489,"Ġclim":6490,"bu":6491,"cious":6492,"Ġimages":6493,"ĠForest":6494,"reck":6495,"Ġmanner":6496,"Ġautom":6497,"ĠVII":6498,"Ġoccurs":6499,"Ġconsisting":6500,"Ġentry":6501,"Ġaspects":6502,"!\"":6503,"ĠNether":6504,"Ġ1938":6505,"Ġble":6506,"Ġconsiderable":6507,"Ġbreeding":6508,"ĠDream":6509,"ĠâĪĴ":6510,"mes":6511,"ĠFound":6512,"Ġsole":6513,"icate":6514,"icit":6515,"ĠFire":6516,"Ġvent":6517,"wan":6518,"Ġmort":6519,"Ġconsum":6520,"Ġremix":6521,"ione":6522,"Ġnoting":6523,"ĠUr":6524,"Ġpoly":6525,"Le":6526,"ĠOk":6527,"Ġchallenge":6528,".)":6529,"Ġrural":6530,"Ġnest":6531,"ophy":6532,"Ġidentity":6533,"ĠCop":6534,"ĠBos":6535,"usic":6536,"ensus":6537,"ĠDougl":6538,"ivals":6539,"iley":6540,"Ġrestaur":6541,"ĠMcK":6542,"Ġeverything":6543,"Ġsufficient":6544,"Ġ1963":6545,"Ġposted":6546,"89":6547,"ĠWat":6548,"Ġvolcan":6549,"Ġbrigade":6550,"ĠKennedy":6551,"Ġsupporters":6552,"Ġsoul":6553,"Ġvessels":6554,"Ġduty":6555,"Ġadministr":6556,"Ġaer":6557,"ĠMoon":6558,"Ġsomeone":6559,"Ġdescribing":6560,"Ġ1962":6561,"ĠAdams":6562,"Ġapart":6563,"uty":6564,"ĠEngine":6565,"Ġslowly":6566,"Ġevolution":6567,"ĠTransport":6568,"regon":6569,"Ġzone":6570,"erto":6571,"Ġ120":6572,"ĠHamilton":6573,"Ġfly":6574,"ĠAk":6575,"ĠAnth":6576,"Ġ1978":6577,"Ġrated":6578,"agues":6579,"risis":6580,"'d":6581,"ĠInc":6582,"Ġdebate":6583,"ĠAssembly":6584,"cknow":6585,"Ġobtained":6586,"Re":6587,"Ġinvolving":6588,"Ġfrag":6589,"iterr":6590,"ĠIndiana":6591,"ĠMagazine":6592,"Ġtypical":6593,"Ġreading":6594,"cation":6595,"Ġsubs":6596,"Ġintegr":6597,"alog":6598,"Ġham":6599,"Ġenemies":6600,"ooth":6601,"ĠAlf":6602,"Ġdepartment":6603,"CC":6604,"Ġaccur":6605,"Ġpurchase":6606,"heastern":6607,"ĠIGN":6608,"Ġpatrol":6609,"Ġdeparture":6610,"Ġcorrect":6611,"ĠMilitary":6612,"Ġdecline":6613,"Ġsettled":6614,"Ġclasses":6615,"ommod":6616,"ĠNic":6617,"Ġarmor":6618,"Ġ1977":6619,"\").":6620,"Ġconcerned":6621,"Ġwidespread":6622,"Ġconnection":6623,"aret":6624,"ĠWeekly":6625,"Ġaccused":6626,"ĠPit":6627,"ĠRoy":6628,"ĠDirector":6629,"orney":6630,"ĠKim":6631,"Ġparliament":6632,"Ġpermanent":6633,"Ġmemorial":6634,"ĠProg":6635,"Ġcrown":6636,"Ġdriving":6637,"Ġrevolution":6638,"Ġet":6639,"Ġtele":6640,"ĠâĢĿ":6641,"going":6642,"ĠCirc":6643,"Ġdeleg":6644,"ĠRem":6645,"ĠOb":6646,"Ġattached":6647,"Ġgall":6648,"Ġowner":6649,"ĠScully":6650,"ĠHou":6651,"wegian":6652,"ĠIndones":6653,"ao":6654,"body":6655,"Ġassumed":6656,"Ġbasic":6657,"Ġrecognition":6658,"Ġacclaim":6659,"agonist":6660,"vis":6661,"Ġspeak":6662,"book":6663,"Ġformal":6664,"Ġsequel":6665,"Ġsessions":6666,"iminal":6667,"iva":6668,"Ġcolour":6669,"Ġ1936":6670,"Ġreturns":6671,"iterranean":6672,"game":6673,"sky":6674,"Ġdenied":6675,"ĠHoward":6676,"don":6677,"Ġsurvey":6678,"Ġdecor":6679,"Ġacknow":6680,"ĠTony":6681,"Ġentering":6682,"Ġpopulations":6683,"IA":6684,"RA":6685,"Ġfoss":6686,"42":6687,"Ġpup":6688,"Ġeighth":6689,"Ġcong":6690,"ĠVideo":6691,"Ġcommitted":6692,"Ġcharges":6693,"idges":6694,"99":6695,"Ġwickets":6696,"Ġfolk":6697,"Ġcann":6698,"ĠIllinois":6699,"ekend":6700,"Ġvalley":6701,"ĠSunday":6702,"SBN":6703,"ibb":6704,"achel":6705,"Ġoldest":6706,"Ġouter":6707,"Ġfaith":6708,"Ġcanc":6709,"hedral":6710,"ĠProject":6711,"Ġtemple":6712,"Ġ1956":6713,"ĠArgent":6714,"ĠScience":6715,"ĠPortug":6716,"Ġcertified":6717,"ami":6718,"udden":6719,"ĠAlan":6720,"ĠMountain":6721,"weight":6722,"ĠHitler":6723,"ĠMaria":6724,"minute":6725,"Ġheaded":6726,"ĠColl":6727,"Ġmode":6728,"ĠCart":6729,"Ġsegment":6730,"ĠSimon":6731,"Ġcircum":6732,"Ġthousands":6733,"Ġdisturb":6734,"Ġterminus":6735,"Ġsailed":6736,"Ġsolid":6737,"ĠMediterranean":6738,"ĠWell":6739,"rophy":6740,"ece":6741,"400":6742,"po":6743,"Ġpossibility":6744,"Ġsupposed":6745,"ng":6746,"ĠConstitution":6747,"Ġpassengers":6748,"ĠResearch":6749,"41":6750,"Ġ42":6751,"ĠPo":6752,"ĠHor":6753,"Ġdoor":6754,"Ġshots":6755,"ĠPear":6756,"Ġtransition":6757,"Ġswim":6758,"Ġcirculation":6759,"Ġdowntown":6760,"ĠOregon":6761,"ĠRolling":6762,"veland":6763,"irt":6764,"nic":6765,"ras":6766,"Ġspons":6767,"Ġliterary":6768,"Ġalt":6769,"point":6770,"aza":6771,"ban":6772,"upt":6773,"Ġ41":6774,"atinum":6775,"isms":6776,"Ġstrongly":6777,"Ġbehavior":6778,"Ġassistance":6779,"Ġwearing":6780,"...]":6781,"Ġregional":6782,"Ġans":6783,"Ġdated":6784,"hered":6785,"Ġhip":6786,"ĠYour":6787,"Ġbegun":6788,"ĠÃĹ":6789,"lets":6790,"adow":6791,"har":6792,"ĠCleveland":6793,"Ġreplacement":6794,"Ġcosts":6795,"ĠBeatles":6796,"ĠBry":6797,"Ġcommanded":6798,"ĠIra":6799,"ĠGun":6800,"Ġminister":6801,"Ġtorn":6802,"ategy":6803,"onto":6804,"Ġthirty":6805,"Ġintelligence":6806,"ĠDouglas":6807,"eing":6808,"ĠKorea":6809,"ĠAdam":6810,"ĠRose":6811,"Ġcommit":6812,"ĠPower":6813,"Ġmissions":6814,"ĠLeon":6815,"Ġhill":6816,"Ġproperties":6817,"Ġmoves":6818,"arsh":6819,"ĠFeder":6820,"ĠJane":6821,"ĠInit":6822,"ker":6823,"Ġdress":6824,"Ġhope":6825,"ĠHug":6826,"ĠChannel":6827,"Ġwarm":6828,"ĠMedia":6829,"ĠJordan":6830,"Ġrecovered":6831,"Ġclean":6832,"ĠFreder":6833,"Ġfictional":6834,"Ġblow":6835,"Ġfruit":6836,"Ġfreedom":6837,"Ġhosted":6838,"ĠStanley":6839,"Ġcloud":6840,"Ġtow":6841,"You":6842,"Ġintercept":6843,"Ġattributed":6844,"Ġhang":6845,"oyd":6846,"Ġskin":6847,"olec":6848,"ĠKat":6849,"enses":6850,"Ġ1961":6851,"Ġdestruction":6852,"umin":6853,"Ġmissed":6854,"ĠCritical":6855,"Ġprotest":6856,"Ġincorporated":6857,"ĠRyan":6858,"Ġfilled":6859,"Ġfinishing":6860,"bre":6861,"ĠDeath":6862,"To":6863,"riers":6864,"Ġatmosphere":6865,"Ġalleged":6866,"sole":6867,"anth":6868,"ĠTreat":6869,"ĠLenn":6870,"Ġbringing":6871,"fire":6872,"alo":6873,"Ġdemand":6874,"Ġserves":6875,"Ġ1953":6876,"Ġsons":6877,"Ġshop":6878,"Ġexception":6879,"Ġopposite":6880,"ĠNBA":6881,"Ġcrash":6882,"oslav":6883,"Ġtheatre":6884,"thm":6885,"car":6886,"Ġmethods":6887,"Ġhighlight":6888,"ĠBristol":6889,"ĠPhilip":6890,"ĠMexican":6891,"?\"":6892,"Ġ1947":6893,"Ġemp":6894,"Ġregularly":6895,"ji":6896,"wen":6897,"Ġchampion":6898,"Ġprey":6899,"Ġdemol":6900,"Ġdipl":6901,"uts":6902,"ĠFame":6903,"Ġcavalry":6904,"Ġintention":6905,"Ġfine":6906,"Ġcourts":6907,"Ġmaterials":6908,"ici":6909,"Ġcompletion":6910,"Ġ',":6911,"ĠThird":6912,"Ġvolunte":6913,"Ġdissip":6914,"iot":6915,"ĠEric":6916,"Ġ1910":6917,"Ġstayed":6918,"58":6919,"Ġvary":6920,"ĠSav":6921,"chang":6922,"Ġaccommod":6923,"Ġresponsibility":6924,"Ġstrateg":6925,"Ġattracted":6926,"ige":6927,"Ġ1937":6928,"ĠFederal":6929,"ĠColor":6930,"Ġdifferences":6931,"Ġsche":6932,"ĠFA":6933,"Ġfeeling":6934,"Ġpersu":6935,"Ġoccasionally":6936,"Ġdivers":6937,"Ġbrain":6938,"Ġsurviving":6939,"Ġunusual":6940,"Ġsuperv":6941,"bec":6942,"abled":6943,"ipe":6944,"active":6945,"Ġaboard":6946,"emeter":6947,"61":6948,"Ġfields":6949,"Ġderived":6950,"Ġincome":6951,"Ġpassage":6952,"Ġ[...]":6953,"Ġeffectively":6954,"ĠâĢľ":6955,"Ġprovince":6956,"aired":6957,"ubb":6958,"Ġentertain":6959,"Ġclubs":6960,"agle":6961,"Ġinterpret":6962,"omot":6963,"ogen":6964,"nings":6965,"ĠPhill":6966,"Ġcruiser":6967,"72":6968,"From":6969,"ĠTenn":6970,"Ġdivisions":6971,"Ġratings":6972,"Ġmusicians":6973,"Ġanimated":6974,"ĠBa":6975,"using":6976,"pping":6977,"Ġreinforce":6978,"ĠISBN":6979,"ĠBetween":6980,"inder":6981,"ĠWWE":6982,"Ġoutbreak":6983,"ĠMarc":6984,"Ġwarning":6985,"Ġeleven":6986,"ĠBruce":6987,"ompl":6988,"teenth":6989,"fe":6990,"Ġquant":6991,"ĠSpace":6992,"ĠSweden":6993,"ĠStand":6994,"Ġvotes":6995,"Ġbattleships":6996,"ĠBush":6997,"ĠGen":6998,"Ġclassified":6999,"'ll":7000,"Ġassociation":7001,"ĠHo":7002,"Ġclimate":7003,"Ġclassification":7004,"Ġdesire":7005,"iece":7006,"No":7007,"Ġstood":7008,"ĠAndy":7009,"59":7010,"ĠBol":7011,"ĠWho":7012,"Ġhoped":7013,"Ġrooms":7014,"Ġpredecess":7015,"Ġshore":7016,"Ġemerged":7017,"pper":7018,"Ġheat":7019,"abil":7020,"ĠNorwegian":7021,"rum":7022,"Ġrequested":7023,"Ġspok":7024,"Ġmovements":7025,"Ġdang":7026,"Ã³n":7027,"Ġancest":7028,"ewhere":7029,"ĠRun":7030,"ĠGer":7031,"Ġ1957":7032,"Ġhistorians":7033,"Ġdifficulty":7034,"ĠWeb":7035,"Ġ1958":7036,"Ġsam":7037,"ĠArsenal":7038,"Ġflo":7039,"Ġcommunities":7040,"62":7041,"gets":7042,"ĠLanc":7043,"Ġtechnical":7044,"Ġton":7045,"Ġraise":7046,"ĠNations":7047,"ĠPur":7048,"Ġrose":7049,"Ġchemical":7050,"Ġtied":7051,"Ġreality":7052,"ĠMorris":7053,"inton":7054,"Ġbasketball":7055,"Ġvide":7056,"Ġprogramme":7057,"anny":7058,"Ġrestored":7059,"ĠFamily":7060,"ĠMorgan":7061,"writer":7062,"88":7063,"ĠTelevision":7064,"Ġvehicle":7065,"ĠBah":7066,"Ġmemory":7067,"Ġglobal":7068,"Ġestablishment":7069,"Ġinjuries":7070,"Ġpremiere":7071,"Ġment":7072,"Ġsounds":7073,"ĠPremier":7074,"ĠRoger":7075,"Ġexpect":7076,"Ġinspiration":7077,"ĠNetherlands":7078,"Ġaccounts":7079,"nce":7080,"Ġnone":7081,"Ġpenalty":7082,"iate":7083,"ĠRow":7084,"lig":7085,"Ġequipped":7086,"Ġchorus":7087,"exp":7088,"oster":7089,"Ġsqu":7090,"Ġfunding":7091,"Ġsurrounded":7092,"uther":7093,"Ġpraise":7094,"Ġbatting":7095,"ĠToronto":7096,"formula":7097,"Ġready":7098,"aya":7099,"ĠRobinson":7100,"coming":7101,"ses":7102,"Ġille":7103,"Ġcrop":7104,"Ġotherwise":7105,"Ġdepict":7106,"ĠLow":7107,"Ġ1954":7108,"oming":7109,"Ġseparated":7110,"onds":7111,"place":7112,"Ġneither":7113,"Ġgreatly":7114,"Ġrelative":7115,"Ġclaiming":7116,"ĠDisc":7117,"ĠTemple":7118,"ache":7119,"ompson":7120,"Ġpicture":7121,"Ġflank":7122,"Ġdiscovery":7123,"Ġspin":7124,"irds":7125,"Ġkid":7126,"ĠAst":7127,"Ġanniversary":7128,"ĠTurk":7129,"ĠBudd":7130,"ĠByzantine":7131,"ĠEver":7132,"ĠAdditionally":7133,"Ġstrategy":7134,"ĠHere":7135,"ĠNelson":7136,"Ġdelayed":7137,"Ġneeds":7138,"Ġpartner":7139,"Ġdream":7140,"ĠAnton":7141,"Ġ1959":7142,"74":7143,"ES":7144,"itter":7145,"ĠFord":7146,"ĠPier":7147,"Ġspoke":7148,"Ġgal":7149,"ĠRaj":7150,"Ġ1955":7151,"Ġtries":7152,"ĠCas":7153,"ĠScient":7154,"Ġmo":7155,"Ġteen":7156,"Ġweapon":7157,"ĠCab":7158,"uble":7159,"ĠFrancis":7160,"Ġcrosses":7161,"Ġarchitecture":7162,"agre":7163,"Ġremember":7164,"ĠTar":7165,"Ġdismissed":7166,"gun":7167,"Ġdetermine":7168,"Ġaccompl":7169,"ĠIraq":7170,"Ġcheck":7171,"ĠRecording":7172,"Ġastron":7173,"71":7174,"Ġfear":7175,"ooking":7176,"ĠFinn":7177,"Ġrecru":7178,"Ġinvolvement":7179,"ĠJews":7180,"Despite":7181,"Ġseemed":7182,"ĠSky":7183,"Ġremn":7184,"Ġsuit":7185,"Ġadaptation":7186,"Ġdie":7187,"Ġbombard":7188,"li":7189,"Ġresources":7190,"wealth":7191,"Ġscheme":7192,"ĠAllen":7193,"Ġinterests":7194,"Ġensure":7195,"aire":7196,"ĠHawai":7197,"aria":7198,"Ġhear":7199,"Ġshif":7200,"Ġreserv":7201,"Ġtemporary":7202,"mate":7203,"ĠSports":7204,"ĠConc":7205,"If":7206,"itzer":7207,"Ġconvinced":7208,"Ġstands":7209,"ĠCentre":7210,"Ġassemb":7211,"Ġstreets":7212,"ester":7213,"Ġdocumentary":7214,"Ġlibrary":7215,"Ġash":7216,"ĠNich":7217,"ĠKevin":7218,"icide":7219,"Ġwrong":7220,"acre":7221,"Ġtechniques":7222,"asure":7223,"ĠMarine":7224,"Ã±":7225,"rep":7226,"Ġha":7227,"ĠOak":7228,"Ġ64":7229,"Ġ1952":7230,"Ġsale":7231,"ĠToday":7232,"Ġraces":7233,"ĠMaster":7234,"ĠFive":7235,"Ġthrone":7236,"DS":7237,"Ġlegend":7238,"Ġsatisf":7239,"lie":7240,"ĠJacob":7241,"Ġphotograph":7242,"ĠDesign":7243,"ĠJournal":7244,"Ġeggs":7245,"host":7246,"Ġcommemor":7247,"osure":7248,"Ġplane":7249,"Ġscrap":7250,"ĠNetwork":7251,"á»":7252,"Ġreviewer":7253,"Ġsurviv":7254,"Ġcul":7255,"ĠDean":7256,"Ġpremiered":7257,"ĠBishop":7258,"ossible":7259,"Ġ1933":7260,"acent":7261,"ĠPuerto":7262,"ĠAthe":7263,"ĠGlob":7264,"Ġlake":7265,"Ġadults":7266,"Ġelse":7267,"Ġimmediate":7268,"ronze":7269,"ĠProfess":7270,"oen":7271,"Ġfal":7272,"Ġmassive":7273,"ĠIron":7274,"Ġshr":7275,"56":7276,"Ġinterior":7277,"ĠArmen":7278,"Ad":7279,"zy":7280,"ĠTechn":7281,"Ġ1935":7282,"Ġairport":7283,"ĠShortly":7284,"Ġconclusion":7285,"vens":7286,"ĠDog":7287,"Ġgirls":7288,"ivan":7289,"Ġfalling":7290,"Ġabsence":7291,"Ġacademic":7292,"Ġpartn":7293,"Ġmedieval":7294,"Ġcharacteristics":7295,"Ġdeemed":7296,"Ġinner":7297,"Ġweekend":7298,"Ġfacility":7299,"Cl":7300,"Sc":7301,"Ġtra":7302,"ĠDig":7303,"ĠGill":7304,"Ġconvection":7305,"Ġengineer":7306,"iday":7307,"Ġdens":7308,"Ġtemperatures":7309,"Ġloyal":7310,"Ġcolony":7311,"ĠWelsh":7312,"Ġleads":7313,"ĠNiel":7314,"Ġafterwards":7315,"ĠCarter":7316,"aser":7317,"ĠCE":7318,"Ġconvent":7319,"Ġencouraged":7320,"Ġlegislation":7321,"pon":7322,"800":7323,"Ġfitted":7324,"lyn":7325,"apse":7326,"opes":7327,"Ġpassenger":7328,"52":7329,"Ġ1951":7330,"ternal":7331,"Ġsurpr":7332,"ĠAnne":7333,"Ġappearing":7334,"ĠMarg":7335,"roit":7336,"ĠLibrary":7337,"rik":7338,"Ġmeets":7339,"Ġvisible":7340,"ixon":7341,"ĠAgain":7342,"inter":7343,"urches":7344,"sea":7345,"scape":7346,"Ġrenew":7347,"Ġturb":7348,"ĠAut":7349,"ĠInt":7350,"Ġsuperior":7351,"Ġlies":7352,"uster":7353,"Ġgrant":7354,"Ġbelieves":7355,"Ġalien":7356,"Ġattempting":7357,"ĠSimilar":7358,"ĠGard":7359,"Ġseeing":7360,"Ġsight":7361,"Ġdoct":7362,"Ġsed":7363,"ĠArn":7364,"ĠFront":7365,"ĠEle":7366,"Ġmunicip":7367,"owa":7368,"ĠPatrick":7369,"ĠMars":7370,"Ġattacking":7371,"Ġholds":7372,"elle":7373,"Ġmodified":7374,"Ġsecured":7375,"edding":7376,"Ġfighter":7377,"Ġappropri":7378,"Ġninth":7379,"Ġdepicted":7380,"Ġpresidential":7381,"indu":7382,"ĠLet":7383,"Ġcarbon":7384,"Ġcontroversial":7385,"63":7386,"Ġtheat":7387,"Ġhabitat":7388,"Ġwings":7389,"Ġfled":7390,"Ġstandards":7391,"Ġabsor":7392,"ĠAz":7393,"ĠWy":7394,"who":7395,"encies":7396,"Ġunsuccessful":7397,"atically":7398,"ĠBou":7399,"rait":7400,"ĠHend":7401,"ugoslav":7402,"Ġworst":7403,"ĠLabor":7404,"Ġ1949":7405,"Ġdating":7406,"ĠDomin":7407,"Ġbattleship":7408,"eline":7409,"ĠPalace":7410,"Ġforming":7411,"Ġsuffering":7412,"ultane":7413,"Ġmonarch":7414,"ĠNorman":7415,"ĠHoly":7416,"ĠLisa":7417,"Ġclassic":7418,"Ġelections":7419,"aska":7420,"Ġcredit":7421,"shaped":7422,"Ġgeneration":7423,"ĠDer":7424,"Ġrum":7425,"ĠOpen":7426,"Ġretirement":7427,"Ġdistributed":7428,"Ġarchae":7429,"arc":7430,"Ġcontinuing":7431,"Ġgraphics":7432,"aft":7433,"igration":7434,"Ġ44":7435,"Ġbright":7436,"apping":7437,"ĠThompson":7438,"Ġcancer":7439,"ĠTrib":7440,"Ġconsp":7441,"mith":7442,"axon":7443,"Ġarrangement":7444,"Ġsomewhat":7445,"fare":7446,"eenth":7447,"Ġcode":7448,"where":7449,"aste":7450,"Ġauthors":7451,"ĠHospital":7452,"ĠPak":7453,"ĠKelly":7454,"Ġwins":7455,"Ġgone":7456,"ĠCommonwealth":7457,"Ġanyone":7458,"emetery":7459,"Ġic":7460,"agu":7461,"Ġrailroad":7462,"ĠRain":7463,"Ġenl":7464,"ribed":7465,"ĠId":7466,"ĠDE":7467,"Ġbuy":7468,"ĠEducation":7469,"ĠCorporation":7470,"ĠSin":7471,"Ġromantic":7472,"Ġacknowled":7473,"Ġpure":7474,"81":7475,"ĠSant":7476,"Ġachieve":7477,"Ġcategory":7478,"ĠHarris":7479,"Ġfur":7480,"Ġoperate":7481,"ĠWinter":7482,"Ġcarrier":7483,"Ġrescue":7484,"Ġmeasures":7485,"Ġlanded":7486,"Ġclassical":7487,"text":7488,"Ġjudge":7489,"Ġgarrison":7490,"olph":7491,"ĠBerlin":7492,"Ġfavorite":7493,"SP":7494,"She":7495,"ito":7496,"una":7497,"tenance":7498,"ois":7499,"isen":7500,"ĠTok":7501,"Ġconvention":7502,"Ġmyster":7503,"Ġeveryone":7504,"eping":7505,"inally":7506,"Ġsees":7507,"Ġspr":7508,"rees":7509,"ĠHouston":7510,"Ġmap":7511,"Ġstyles":7512,"ĠYan":7513,"Ġ47":7514,"Ġgrass":7515,"ĠWright":7516,"ĠBrother":7517,"Ġtrials":7518,"Ġsudden":7519,"otype":7520,"Ġalleg":7521,"Ġdub":7522,"Ġlooked":7523,"Ġdeployed":7524,"mad":7525,"Ġcloser":7526,"Ġsiege":7527,"Ġnovels":7528,"Ġquestions":7529,"Ġcolonial":7530,"Ġ1900":7531,"ogether":7532,"Ġinfluences":7533,"ĠStory":7534,"ĠWhat":7535,"Ġinfluential":7536,"ĠParker":7537,"Star":7538,"Ġinformed":7539,"ture":7540,"Ġhal":7541,"53":7542,"ĠCooper":7543,"ĠWhe":7544,"ĠNFL":7545,"ĠEs":7546,"Ġ52":7547,"Ġbelt":7548,"ĠPolice":7549,"arked":7550,"ĠIslam":7551,"Ġfestival":7552,"ĠGri":7553,"New":7554,"ĠDNA":7555,"Ġexperiences":7556,"ĠDick":7557,"Ġveter":7558,"udes":7559,"My":7560,"Some":7561,"ĠPow":7562,"ĠNow":7563,"raph":7564,"Ġsuccessor":7565,"imore":7566,"Ġemergency":7567,"Ġinstruments":7568,"usted":7569,"ĠYugoslav":7570,"Ġmolec":7571,"Ġchildhood":7572,"Se":7573,"ĠRussell":7574,"Ġnickn":7575,"Ġjournalist":7576,"Ġmathem":7577,"obi":7578,"ĠAdvent":7579,"Ġcoins":7580,"Ġunion":7581,"Ġassass":7582,"ĠThus":7583,"Ġdetail":7584,"51":7585,"iens":7586,"ĠBatman":7587,"Ġvictims":7588,"Ġfactors":7589,"ĠRick":7590,"achment":7591,"Ġoffices":7592,"ĠDetroit":7593,"noon":7594,"ĠUt":7595,"Ġlat":7596,"ĠSanta":7597,"idi":7598,"abs":7599,"oto":7600,"ĠDor":7601,"Ġnarrative":7602,"Ġenvironmental":7603,"Ġrepresenting":7604,"ĠâĤ":7605,"ĠBang":7606,"Ġpregn":7607,"Ġ1913":7608,"Ġdiscussed":7609,"Ġlegs":7610,"rolled":7611,"stances":7612,"ĠCommander":7613,"ĠBure":7614,"Ġgets":7615,"iliar":7616,"Ġmoderate":7617,"ĠIndians":7618,"Ġhistoric":7619,"Ġstead":7620,"Ġresigned":7621,"Ġclimb":7622,"Ġchairman":7623,"hetic":7624,"Ġdefended":7625,"Ġdepos":7626,"Ġmaint":7627,"raf":7628,"Ġjump":7629,"Ġlongest":7630,"ĠMurray":7631,"orous":7632,"Ġmine":7633,"ĠCroatia":7634,"Ġskills":7635,"Ġowners":7636,"Ġpainted":7637,"ĠRoberts":7638,"Ġveget":7639,"ĠWarner":7640,"Ġprevented":7641,"Ġwooden":7642,"ĠHell":7643,"Ġenters":7644,"ĠBelg":7645,"icians":7646,"MA":7647,"Ġnavig":7648,"Ġ1926":7649,"Ġridge":7650,"Ġapparently":7651,"lock":7652,"yo":7653,"ĠSum":7654,"Ġopponents":7655,"Ġlanguages":7656,"Ġbiggest":7657,"ĠSwedish":7658,"Ġspend":7659,"Ġreleases":7660,"ĠConstruction":7661,"Ġreveals":7662,"Ġ1921":7663,"73":7664,"Ġthereafter":7665,"Ġru":7666,"Ġfootage":7667,"Ġlocomot":7668,"ĠMelbourne":7669,"Ġhappened":7670,"ĠXbox":7671,"Ġhundreds":7672,"phy":7673,"Ġtreated":7674,"Ġrelationships":7675,"Ġresign":7676,"away":7677,"Ġequivalent":7678,"Ġflew":7679,"ĠBeck":7680,"term":7681,"hatt":7682,"Ġexcess":7683,"rant":7684,"ĠBi":7685,"ĠLyn":7686,"ĠNielsen":7687,"CA":7688,"Ġster":7689,"Ġalco":7690,"Ġconstant":7691,"Ġpreferred":7692,"onies":7693,"Ġexecuted":7694,"ĠMerc":7695,"rain":7696,"Ġdifference":7697,"Ġreportedly":7698,"ĠSocial":7699,"Ġcycle":7700,"ĠCategory":7701,"Ġvisitors":7702,"Ġchapter":7703,"Ġride":7704,"olis":7705,"Con":7706,"Ġ1934":7707,"related":7708,"Ġinhabit":7709,"Ġuniform":7710,"Ġemployees":7711,"Ġintent":7712,"Ġaccompany":7713,"Ġsurrender":7714,"Ġdiplom":7715,"Ġdeparted":7716,"jo":7717,"stic":7718,"Ġgiant":7719,"Ġpushed":7720,"ĠMort":7721,"Ġanimation":7722,"ais":7723,"Ġparticipate":7724,"utt":7725,"iat":7726,"Ġextent":7727,"ĠAlbums":7728,"Ġdevice":7729,"ĠTower":7730,"Ġ1912":7731,"ĠMatthew":7732,"ĠGaga":7733,"ĠSomers":7734,"ĠÅ":7735,"Ġbon":7736,"Ġexisted":7737,"ĠEvans":7738,"Ġhearing":7739,"ropolitan":7740,"unes":7741,"ĠSpears":7742,"Ġinstance":7743,"Ġbreaking":7744,"mates":7745,"nest":7746,"Ġdialogue":7747,"Ġannounce":7748,"Ġcruisers":7749,"orial":7750,"orage":7751,"ĠVice":7752,"ĠNBC":7753,"Ġexposed":7754,"ye":7755,"Ġpoetry":7756,"ĠUSS":7757,"Ġconvoy":7758,"Ne":7759,"ĠCru":7760,"igen":7761,"ĠNob":7762,"din":7763,"Ġvision":7764,"Ġwatching":7765,"Ġperiods":7766,"hard":7767,"ls":7768,"rior":7769,"endment":7770,"ullivan":7771,"54":7772,"Ġ43":7773,"ĠKnight":7774,"Ġemotional":7775,"ĠStewart":7776,"arth":7777,"ĠClinton":7778,"ĠGreece":7779,"Ġeat":7780,"ĠMun":7781,"ĠChamber":7782,"Ġboil":7783,"ologists":7784,"Ġbes":7785,"ogan":7786,"Ġrebell":7787,"umph":7788,"Ġthousand":7789,"ĠAI":7790,"opter":7791,"ĠLast":7792,"Ġaudio":7793,"ĠPrincess":7794,"hand":7795,"ĠTs":7796,"ĠSilver":7797,"ĠFoundation":7798,"Ġocean":7799,"Ġreviewers":7800,"ĠQueens":7801,"Ġimpressed":7802,"Ġterritories":7803,"Ġvideos":7804,"ĠColorado":7805,"Ġteeth":7806,"Ġresidential":7807,"roke":7808,"Ġformally":7809,"iami":7810,"rot":7811,"ĠNC":7812,"Ġbeach":7813,"Ġdetailed":7814,"ĠCroatian":7815,"borough":7816,"Ġtrained":7817,"Ġintense":7818,"viation":7819,"ĠGuy":7820,"Ġuniverse":7821,"ĠLane":7822,"Ġimprison":7823,"igs":7824,"ĠAuthor":7825,"Ġneck":7826,"ĠPope":7827,"Ġpublisher":7828,"Ġhunting":7829,"ĠCook":7830,"Ġformat":7831,"ĠSamuel":7832,"Ġ160":7833,"Ġsympt":7834,"ĠBaltimore":7835,"ennis":7836,"Ġ1932":7837,"Ġnotably":7838,"Ġtests":7839,"Ġlearning":7840,"Ġnegotiations":7841,"ĠSpe":7842,"Ġske":7843,"Ġencountered":7844,"Ġ46":7845,"ĠAnthony":7846,"ĠAustria":7847,"ĠRaw":7848,"Ġtempor":7849,"ĠChronic":7850,"96":7851,"ĠFree":7852,"Ġbridges":7853,"ĠAsian":7854,"Ġutil":7855,"ĠDeb":7856,"ĠLi":7857,"ĠHeart":7858,"Ġsubstantial":7859,"Ġwithdrew":7860,"mile":7861,"ĠRAF":7862,"icer":7863,"Ġagents":7864,"Ġenthus":7865,"Ġstarred":7866,"Ġpointed":7867,"Ġisolated":7868,"ĠAround":7869,"Ġdriver":7870,"Ġvessel":7871,"Ġbear":7872,"Ġfeud":7873,"Ġbehavi":7874,"idae":7875,"Ġchannel":7876,"Ġspecimens":7877,"ĠJam":7878,"Ġ250":7879,"98":7880,"ĠModern":7881,"ĠArk":7882,"ructure":7883,"ĠGiants":7884,"isp":7885,"olas":7886,"Ġsan":7887,"Ġreun":7888,"Ġunderstand":7889,"anz":7890,"ĠOrgan":7891,"etime":7892,"ĠMuslim":7893,"Ġinher":7894,"Ġpounds":7895,"ĠLate":7896,"Ġplate":7897,"ĠChampionships":7898,"Ġ1929":7899,"Ġgoods":7900,"Ġupgraded":7901,"Ġgay":7902,"Ġupd":7903,"Ġlinked":7904,"Ġbats":7905,"Ġstable":7906,"Ġafternoon":7907,"ching":7908,"Ġreprodu":7909,"Ġpull":7910,"Ġchain":7911,"Ġtesting":7912,"Ġtoll":7913,"icine":7914,"ĠHorn":7915,"Ġdiagn":7916,"Ġfactor":7917,"Ġdiet":7918,"ĠAcc":7919,"Ġstem":7920,"Ġrelie":7921,"Ġcollaps":7922,"Ġorganizations":7923,"ĠRelease":7924,"amese":7925,"Ġcriminal":7926,"Ġrich":7927,"ĠCry":7928,"Ġ1911":7929,"Ġ1927":7930,"Ġdrums":7931,"ellite":7932,"Ġoutf":7933,"leased":7934,"ĠPA":7935,"Ġrefers":7936,"ĠJoh":7937,"Ã©e":7938,"Ġ1922":7939,"Ġsubmarine":7940,"Ġproced":7941,"ĠLennon":7942,"Ġcrisis":7943,"Ġcriticised":7944,"ĠHorse":7945,"Ġwear":7946,"Ġliqu":7947,"Ġturrets":7948,"Ġtechnique":7949,"iable":7950,"Ġsky":7951,"Ġfrequent":7952,"Ġnormally":7953,"father":7954,"Ġwindow":7955,"ygen":7956,"Ġlob":7957,"abama":7958,"Ġpolicies":7959,"Ġpermission":7960,"Ġfinale":7961,"ĠAnglo":7962,"Ġtraveled":7963,"Ġdiameter":7964,"FC":7965,"Ġ51":7966,"ĠSomerset":7967,"gery":7968,"Ġsimultane":7969,"Ġdifficulties":7970,"Ġengineering":7971,"ila":7972,"usal":7973,"Ġsurf":7974,"ĠRAAF":7975,"Ġvul":7976,"ĠExpress":7977,"Ġinsc":7978,"ibbean":7979,"uda":7980,"Ġwhereas":7981,"Ġlose":7982,"Ġjunior":7983,"Ġadvice":7984,"attered":7985,"inction":7986,"Ġpin":7987,"oked":7988,"ĠTrack":7989,"Ġpicked":7990,"uscript":7991,"ĠTal":7992,"ilst":7993,"ĠWrestling":7994,"Ġspending":7995,"Ġresear":7996,"ĠJesus":7997,"Ġpersp":7998,"Ġindicate":7999,"Ġcomments":8000,"Ġagree":8001,"Ġtie":8002,"Ġdesigner":8003,"hour":8004,"icy":8005,"ĠSn":8006,"Ġpartly":8007,"urance":8008,"ricted":8009,"ĠMiami":8010,"Ġmaintenance":8011,"ĠFrederick":8012,"ĠForces":8013,"Ġuncertain":8014,"Ġeasy":8015,"ĠBab":8016,"Ġcompete":8017,"Ġconcerts":8018,"ĠBenn":8019,"Ġ1931":8020,"Ġtaught":8021,"Ġmedium":8022,"ĠTreaty":8023,"87":8024,"Ġpartially":8025,"Ġbypass":8026,"Ġremove":8027,"Ġrefuge":8028,"Ġpersonality":8029,"ĠNevertheless":8030,"Ġvice":8031,"Ġdeter":8032,"strong":8033,"ĠObs":8034,"Ġwindows":8035,"helm":8036,"Since":8037,"Ġapprec":8038,"Ġseats":8039,"Ġprohib":8040,"ĠStock":8041,"ĠCanal":8042,"gro":8043,"ĠEst":8044,"aws":8045,"ĠJason":8046,"eu":8047,"Ġrecommend":8048,"Ġped":8049,"mers":8050,"Ġfil":8051,"Ġhappy":8052,"ĠUSA":8053,"ĠThor":8054,"ĠPlayer":8055,"Ġdangerous":8056,"isd":8057,"Ġrates":8058,"Ġproport":8059,"Ġcovers":8060,"Ġprompted":8061,"mill":8062,"Ġrepair":8063,"ĠCz":8064,"ĠSeattle":8065,"Ġrecordings":8066,"Ġrestrict":8067,"Ġsure":8068,"weet":8069,"ĠSab":8070,"ĠCur":8071,"ĠUlt":8072,"ĠHeavy":8073,"ĠMario":8074,"Ġmainstream":8075,"Ġdescribe":8076,"ĠTrek":8077,"Ġfighters":8078,"Ġphr":8079,"forced":8080,"Ġgather":8081,"overs":8082,"Ġforcing":8083,"Ġdestroyers":8084,"Ġrarely":8085,"Ġchronic":8086,"ĠHans":8087,"Ġdivor":8088,"Ġhonour":8089,"Ġrepresentative":8090,"Ġmamm":8091,"ĠUnlike":8092,"ĠMarshall":8093,"ĠBed":8094,"Ġjur":8095,"Ġshear":8096,"ĠBros":8097,"ĠWithin":8098,"):":8099,"Ġmir":8100,"Ġneighborhood":8101,"ĠBuck":8102,"ĠCaribbean":8103,"86":8104,"Ġhockey":8105,"Ġverse":8106,"ĠTownship":8107,"ante":8108,"ĠYanke":8109,"agg":8110,"Ġchurches":8111,"Ġexamples":8112,"ivated":8113,"Ġsymp":8114,"Ġstrip":8115,"Ġbases":8116,"ĠKnow":8117,"Ġmonument":8118,"Ġtub":8119,"Ġanticip":8120,"Ġapproval":8121,"Ġfalls":8122,"ĠWing":8123,"ĠReal":8124,"ĠCrown":8125,"Ġhuge":8126,"Ġunderw":8127,"Ġdynasty":8128,"ĠFI":8129,"Ġtravelled":8130,"cons":8131,"Ġinaug":8132,"Ġhull":8133,"ĠIowa":8134,"ounced":8135,"Ġlowest":8136,"ĠAlabama":8137,"Ġdiff":8138,"Ġalter":8139,"ogy":8140,"Ġdominated":8141,"PA":8142,"ĠAustralians":8143,"Ġadjacent":8144,"Äį":8145,"Ġprotagonist":8146,"Ġpartnership":8147,"iac":8148,"Ġca":8149,"hens":8150,"Ġhousing":8151,"ãģ":8152,"alions":8153,"Ġphen":8154,"selling":8155,"Ġbrand":8156,"ĠMinistry":8157,"ĠDiego":8158,"Ġminimum":8159,"acked":8160,"ĠMississ":8161,"ĠGrammy":8162,"thel":8163,"otten":8164,"Ġlisting":8165,"Ġdisplayed":8166,"Ġasks":8167,"ĠPC":8168,"velt":8169,"ĠGilbert":8170,"Ġdriven":8171,"ĠMalays":8172,"ĠSarah":8173,"Ġdoctor":8174,"ĠMinnes":8175,"ĠSimp":8176,"Ã§":8177,"orph":8178,"Ġfung":8179,"sters":8180,"ipped":8181,"Ġvillages":8182,"ĠHamp":8183,"Ġjoining":8184,"imeter":8185,"jamin":8186,"Ġrefere":8187,"ĠSenator":8188,"Ġdrawing":8189,"Ġadm":8190,"Ġcanal":8191,"Ġethnic":8192,"ugby":8193,"Ġcopy":8194,"Ġtribute":8195,"Ġmoments":8196,"Ġtone":8197,"Ġcollapse":8198,"ĠLawrence":8199,"Ġmile":8200,"Ġovers":8201,"Ġadvis":8202,"Ġstorms":8203,"Ġdollars":8204,"ĠGarden":8205,"Ġappointment":8206,"scale":8207,"Ġsurvive":8208,"reated":8209,"Ġradar":8210,"Ġscientists":8211,"Ġsafe":8212,"ĠAud":8213,"elsewhere":8214,"Ġeliminated":8215,"Ġelsewhere":8216,"Ġrounds":8217,"Ġextreme":8218,"Ġvictories":8219,"ĠNapole":8220,"Ġpaintings":8221,"ecraft":8222,"Ġ1925":8223,"onnaissance":8224,"Ġnewspapers":8225,"iders":8226,"Ġdesignation":8227,"Ġ1928":8228,"Ġprecip":8229,"ouri":8230,"ĠDesc":8231,"ĠLegacy":8232,"ĠBuff":8233,"ĠHockey":8234,"Ġtreaty":8235,"ĠSimpson":8236,"unc":8237,"Ġtruth":8238,"Ġmoral":8239,"Ġdispute":8240,"ĠHealth":8241,"Ġpurposes":8242,"Ġmand":8243,"Ġ1924":8244,"Ġtrend":8245,"rupted":8246,"Ġoccasions":8247,"roc":8248,"Ġarriving":8249,"hattan":8250,"ĠHills":8251,"espe":8252,"Ġpossession":8253,"ographical":8254,"see":8255,"Ġarts":8256,"Ġhelping":8257,"ĠBelgium":8258,"roid":8259,"orders":8260,"ĠMedal":8261,"Ġoccupation":8262,"ĠMach":8263,"Ġmanuscript":8264,"ĠGuardian":8265,"rix":8266,"Ġ1890":8267,"olds":8268,"osevelt":8269,"Ġkeeping":8270,"Ġorb":8271,"Ġfacing":8272,"acle":8273,"Ġacted":8274,"Ġbenefit":8275,"Ġboys":8276,"rim":8277,"opp":8278,"Ġexplo":8279,"Ġvalues":8280,"Ġmurd":8281,"urd":8282,"Ġtruck":8283,"Ġpric":8284,"Ġju":8285,"Ġhelic":8286,"Ġsurprise":8287,"ĠRepresent":8288,"nik":8289,"Ġpool":8290,"obile":8291,"Ph":8292,"boy":8293,"Ġax":8294,"aron":8295,"Ġcovering":8296,"Ġloan":8297,"Ġmarry":8298,"Ġgat":8299,"ĠTy":8300,"ĠPeninsula":8301,"Ġx":8302,"ĠDave":8303,"ĠCountry":8304,"ĠRa":8305,"atherine":8306,"Ġoption":8307,"ĠOt":8308,"Ġinnov":8309,"mph":8310,"Ġsuicide":8311,"Ġresumed":8312,"Ġschedule":8313,"57":8314,"reation":8315,"rising":8316,"EC":8317,"ĠAlong":8318,"Ġtwin":8319,"Ġdegrees":8320,"Ġfishing":8321,"rome":8322,"rawn":8323,"incial":8324,"Ġcandidates":8325,"Ġminimal":8326,"97":8327,"Ġabilities":8328,"Ġthin":8329,"ĠHand":8330,"munition":8331,"species":8332,"ulating":8333,"Ġpilots":8334,"Ġsurvivors":8335,"oking":8336,"Ġcompeted":8337,"Ġsoil":8338,"ĠHu":8339,"agen":8340,"Ġpublicly":8341,"ĠKhan":8342,"190":8343,"ĠRoc":8344,"Ġgenerated":8345,"ethe":8346,"Ġstruggle":8347,"Ġ54":8348,"Ġorbit":8349,"including":8350,"ĠUSD":8351,"ĠAdminist":8352,"Ġwet":8353,"Ġwedding":8354,"ĠVietnamese":8355,"rams":8356,"Ġdoesn":8357,"found":8358,"Ġdies":8359,"ĠBanks":8360,"ĠMinnesota":8361,"hu":8362,"And":8363,"ensions":8364,"Ġrhythm":8365,"Ġprosp":8366,"ĠIndustry":8367,"adi":8368,"ĠDur":8369,"Ġcateg":8370,"ĠAC":8371,"Ġnations":8372,"94":8373,"Ġpage":8374,"ilty":8375,"ĠManhattan":8376,"à¤":8377,"Ġrivers":8378,"Ġbusinesses":8379,"Am":8380,"vy":8381,"Ġalignment":8382,"Ġadvoc":8383,"Ġcooper":8384,"Ġ1923":8385,"Ġargument":8386,"Ġcreative":8387,"Ġopponent":8388,"Ġdefeating":8389,"Ġcustom":8390,"acc":8391,"ĠAnna":8392,"Ġassists":8393,"Ġteaching":8394,"issue":8395,"Ġgrown":8396,"Ġgrav":8397,"storm":8398,"ĠHud":8399,"Ġlem":8400,"ĠTrust":8401,"Ġbacking":8402,"stal":8403,"ĠRang":8404,"ception":8405,"Ġbalance":8406,"Ġtot":8407,"Ġmulti":8408,"Ġmines":8409,"itated":8410,"iveness":8411,"Ġcredits":8412,"ĠTurkish":8413,"Ġlists":8414,"Ġconsult":8415,"ĠRoosevelt":8416,"Ġsymptoms":8417,"Ġwrest":8418,"Ġsuitable":8419,"Ġfoundation":8420,"Ġbehalf":8421,"espeare":8422,"ippi":8423,"ctic":8424,"Ġtelling":8425,"ĠLin":8426,"pler":8427,"Ġconcrete":8428,"ĠFranklin":8429,"Ġseeking":8430,"anium":8431,"Ġrepr":8432,"ori":8433,"ifer":8434,"ĠAlfred":8435,"Ġflash":8436,"Ġscholar":8437,"alities":8438,"ĠHotel":8439,"def":8440,"Ġunderstanding":8441,"ĠCharlie":8442,"Ġsank":8443,"otes":8444,"rations":8445,"Ġbrick":8446,"Ġfifteen":8447,"Ġagricultural":8448,"Ġciting":8449,"Ġovert":8450,"Ġforests":8451,"onymous":8452,"Ġwaves":8453,"Ġdanc":8454,"eton":8455,"odore":8456,"rm":8457,"andal":8458,"ĠOp":8459,"Ġencounter":8460,"asters":8461,"Ġmultipl":8462,"Ġinteract":8463,"Ġpercentage":8464,"xual":8465,"Ġ'.":8466,"Ġsubmitted":8467,"Ġammunition":8468,"Ġrepairs":8469,"Ġsituated":8470,"Ġbombers":8471,"Ġinstrumental":8472,"cru":8473,"Ġparish":8474,"ĠÃĨ":8475,"Ġtenth":8476,"orious":8477,"ĠLl":8478,"ĠJess":8479,"Ġcoordin":8480,"Ġsubjects":8481,"Ġtunnel":8482,"ĠChildren":8483,"ĠAff":8484,"essee":8485,"ĠNazi":8486,"Ġelectronic":8487,"Ġmart":8488,"amic":8489,"lah":8490,"zz":8491,"Ġemperor":8492,"resents":8493,"84":8494,"unch":8495,"ĠKansas":8496,"Ġserial":8497,"Ġelabor":8498,"Ġillness":8499,"Äĥ":8500,"ĠHong":8501,"Ġvic":8502,"dr":8503,"Ġsigns":8504,"dale":8505,"ĠBan":8506,"ĠArea":8507,"Ġsunk":8508,"Ġpoison":8509,"ĠBenjamin":8510,"ĠThen":8511,"Ġclosing":8512,"700":8513,"ĠBull":8514,"amps":8515,"Ġimpossible":8516,"roph":8517,"gate":8518,"ĠPortland":8519,"Ġchanging":8520,"Ġattendance":8521,"Ġcollaboration":8522,"Ġasking":8523,"Ġmicro":8524,"ĠIan":8525,"ĠDiv":8526,"ĠBlues":8527,"arant":8528,"style":8529,"ĠAh":8530,"quir":8531,"Ġunlike":8532,"Ġfunctions":8533,"ĠPolit":8534,"Ġaudiences":8535,"ĠExt":8536,"Ġrestaurant":8537,"olly":8538,"Ġ600":8539,"Ġfeelings":8540,"ĠEvent":8541,"Ġaged":8542,"Ġflights":8543,"ËĪ":8544,"Ġhat":8545,"Ġassisted":8546,"Ġaffairs":8547,"ĠRand":8548,"odge":8549,"Ġsigning":8550,"ques":8551,"Ġjunction":8552,"Ġtargets":8553,"Ġfiring":8554,"ĠAthlet":8555,"Ġiniti":8556,"itchell":8557,"ĠHindu":8558,"ĠWard":8559,"Ġassess":8560,"Ġdiscip":8561,"Ġ1908":8562,"Ġpy":8563,"ĠKal":8564,"Ġaffair":8565,"ĠCall":8566,"ĠThroughout":8567,"Ġsmooth":8568,"ĠWalker":8569,"uable":8570,"Ġdocuments":8571,"uv":8572,"atics":8573,"Ġsuspended":8574,"Ġforty":8575,"ĠAnim":8576,"Ġ53":8577,"Ġcargo":8578,"was":8579,"ĠNat":8580,"ĠNash":8581,"Ġunderground":8582,"Ġfuneral":8583,"83":8584,"Ġusual":8585,"ĠHuman":8586,"ishment":8587,"ĠShel":8588,"Ġ1905":8589,"inea":8590,"Ġmountains":8591,"tty":8592,"ĠDance":8593,"issions":8594,"bishop":8595,"urring":8596,"Ġearthqu":8597,"hist":8598,"ĠTun":8599,"Ġlect":8600,"eneration":8601,"Ġoxygen":8602,"Ġcompilation":8603,"Ġabol":8604,"ĠMes":8605,"What":8606,"ĠBuilding":8607,"Ste":8608,"ĠCole":8609,"Ġskull":8610,"ĠPhilippines":8611,"ĠWol":8612,"Ġfiled":8613,"Ġstatue":8614,"Ġprofessor":8615,"ĠLouisiana":8616,"Ġdisaster":8617,"Ġwilling":8618,"ĠDepression":8619,"Ġexplosion":8620,"ĠRap":8621,"Tr":8622,"idel":8623,"Mar":8624,"Ġcontroll":8625,"Ġplatinum":8626,"ellent":8627,"inental":8628,"fish":8629,"ĠCamer":8630,"Ġsequences":8631,"Best":8632,"Ġfavorable":8633,"ĠRace":8634,"ĠLim":8635,"ĠHistoric":8636,"sized":8637,"ĠDC":8638,"Ġneutral":8639,"ĠLad":8640,"ateur":8641,"ancell":8642,"Ġcorpor":8643,"ĠCampbell":8644,"Ġtemporarily":8645,"Ġartwork":8646,"ĠLaure":8647,"Ġadopt":8648,"Ġentertainment":8649,"ĠTennessee":8650,"Ġninet":8651,"....":8652,"Ġpoorly":8653,"Ġpitched":8654,"Most":8655,"Ġdeliber":8656,"Ġaimed":8657,"Ġ1909":8658,"91":8659,"ĠFried":8660,"ĠGab":8661,"Ġspan":8662,"ĠAlexand":8663,"ĠKurt":8664,"Ġmeasured":8665,"TA":8666,"formation":8667,"Ġelder":8668,"Ġwore":8669,"Ġworship":8670,"ĠDal":8671,"ĠFal":8672,"Ġ85":8673,"ĠShakespeare":8674,"ĠSullivan":8675,"Ġrout":8676,"ika":8677,"Ġoperational":8678,"ĠInterstate":8679,"Ġshells":8680,"Ġpreparation":8681,"die":8682,"cho":8683,"ĠWolf":8684,"Ġrecognised":8685,"ĠMontreal":8686,"ĠNative":8687,"shore":8688,"ylan":8689,"General":8690,"ĠHind":8691,"Ġkne":8692,"Ġalliance":8693,"Ġgrade":8694,"ridge":8695,"mented":8696,"ĠWriting":8697,"artney":8698,"Ġoffering":8699,"athy":8700,"ĠFlight":8701,"Ġwreck":8702,"ĠTag":8703,"Ġnom":8704,"Ġcompleting":8705,"Ġreflected":8706,"Ġresidence":8707,"Ġmargin":8708,"82":8709,"ellect":8710,"Ġreluct":8711,"hire":8712,"Ġrestoration":8713,"Ġreplacing":8714,"ĠChristopher":8715,"reted":8716,"ĠAle":8717,"%.":8718,"Ġtouring":8719,"Ġanch":8720,"uary":8721,"ĠBrun":8722,"Ġviolent":8723,"ĠMississippi":8724,"overe":8725,"ĠLabour":8726,"Ġbanks":8727,"enz":8728,"ĠMP":8729,"Ġspiritual":8730,"Ġexit":8731,"ĠMissouri":8732,"Ġdecides":8733,"Ġ1907":8734,"wa":8735,"ĠKings":8736,"Ġamounts":8737,"Ġcoverage":8738,"Ġfifty":8739,"Ġbot":8740,"Ġlieutenant":8741,"ĠVI":8742,"pop":8743,"zona":8744,"Ġsuggesting":8745,"ĠEgyptian":8746,"Ġcancelled":8747,"Ġexpensive":8748,"Ġescaped":8749,"Ġsector":8750,"ova":8751,"okes":8752,"acon":8753,"Ġdirectors":8754,"Ġamongst":8755,"ĠLam":8756,"Ġrepresents":8757,"rage":8758,"urally":8759,"inations":8760,"Ġrebuilt":8761,"ĠComb":8762,"sec":8763,"Ġargues":8764,"ĠDw":8765,"LC":8766,"ĠHem":8767,"ello":8768,"high":8769,"Ġreven":8770,"urday":8771,"ĠGuide":8772,"Ġerupt":8773,"Ġtribes":8774,"ĠLucas":8775,"ĠIndies":8776,"Ġengagement":8777,"Ġcommunication":8778,"ĠPalest":8779,"Ġcolonies":8780,"cut":8781,"ĠPerform":8782,"Ġjazz":8783,"ĠCuba":8784,"Ġfrig":8785,"Ġcontributions":8786,"Ġplayoffs":8787,"ĠCyr":8788,"ieties":8789,"Ġpatterns":8790,"Ġpulled":8791,"WC":8792,"Ġalcohol":8793,"Ãº":8794,"Ġsolution":8795,"ĠMack":8796,"Ġperspective":8797,"Ġunn":8798,"Ġnucle":8799,"idency":8800,"Ġspeaking":8801,"Ġpredomin":8802,"Ġintensified":8803,"ĠApple":8804,"ĠGet":8805,"Ġinteresting":8806,"Ġhorror":8807,"ĠBox":8808,"ĠNon":8809,"Ġsubt":8810,"Ġ1880":8811,"writing":8812,"ĠMicro":8813,"Ġmerchant":8814,"Ġregistered":8815,"Ġremnants":8816,"ĠÄ":8817,"overeign":8818,"ĠVinc":8819,"Ġprime":8820,"Ġownership":8821,"ĠKirk":8822,"ĠStevens":8823,"Ġinstitutions":8824,"Ġwel":8825,"Ġpreserved":8826,"Ġcrews":8827,"ĠEc":8828,"Ġboundary":8829,"Ġexecut":8830,"Ġdrove":8831,"ĠArizona":8832,"Ġcous":8833,"ĠKu":8834,"asts":8835,"Ġmarks":8836,"ĠMargaret":8837,"Ġgarden":8838,"kes":8839,"oga":8840,"ĠDead":8841,"Ġrit":8842,"Ġcircuit":8843,"Ġliked":8844,"orer":8845,"Ġimperial":8846,"Ġarmored":8847,"Ġexplains":8848,"Ġmilitia":8849,"Ġretail":8850,"Ġsaved":8851,"ĠMitchell":8852,"inding":8853,"Ġcharacterized":8854,"Ġracing":8855,"ectic":8856,"Ġformerly":8857,"omber":8858,"ĠNag":8859,"oven":8860,"elli":8861,"Ġaffili":8862,"Ġcomparison":8863,"ĠIce":8864,"ĠSon":8865,"Ġevil":8866,"rine":8867,"uations":8868,"Ġbulk":8869,"ĠBureau":8870,"two":8871,"Ġadministrative":8872,"lings":8873,"Ġlacked":8874,"Ġbowling":8875,"Ġflagship":8876,"uma":8877,"occ":8878,"ĠWarren":8879,"Ġarmament":8880,"ĠInitially":8881,"Ġexplain":8882,"93":8883,"Ġriders":8884,"Ġ110":8885,"Ġarrive":8886,"Ġexcav":8887,"Ġinhabitants":8888,"Ġinland":8889,"Ġpoems":8890,"ivia":8891,"sequently":8892,"itzerland":8893,"Ġ*":8894,"ĠSi":8895,"ĠDest":8896,"estone":8897,"ĠCold":8898,"Ġmaneu":8899,"Ġfamiliar":8900,"Ġpractices":8901,"Ġcontrols":8902,"Ġseverely":8903,"Ġranks":8904,"Ġbadly":8905,"ĠDom":8906,"Ġcontext":8907,"otton":8908,"Ġrising":8909,"Ġthrew":8910,"Ġoverw":8911,"IS":8912,"ĠHero":8913,"rast":8914,"Ġnotice":8915,"Ġgenetic":8916,"ĠReturn":8917,"Ġtag":8918,"Ġcondem":8919,"ĠIndependent":8920,"Ġartistic":8921,"Ġkeyboard":8922,"bra":8923,"ĠCzech":8924,"Ġwider":8925,"lahoma":8926,"anton":8927,"grad":8928,"Ġdraf":8929,"Ġresolution":8930,"angle":8931,"ĠSteven":8932,"Ġreaches":8933,"uper":8934,"Ġkings":8935,"enna":8936,"Ġdemonstrated":8937,"IV":8938,"Ġfaster":8939,"ĠScout":8940,"ĠPhoen":8941,"Ġfallen":8942,"ĠTamil":8943,"ĠML":8944,"Ġprint":8945,"Ġnominations":8946,"Ġthinking":8947,"Ġnorthward":8948,"Ġrevol":8949,"Ġbronze":8950,"Ġapplication":8951,"Ġexhibition":8952,"ruption":8953,"Ġrecip":8954,"Ġwants":8955,"Ġgrey":8956,"pha":8957,"pound":8958,"ĠMess":8959,"Ġhouseholds":8960,"Ġsurge":8961,"ĠCob":8962,"ĠConfederate":8963,"dy":8964,"urer":8965,"ĠFriend":8966,"ocking":8967,"Ġpredicted":8968,"Ġdepending":8969,"Ġrestricted":8970,"Ġdramatic":8971,"ĠPed":8972,"rose":8973,"ithuan":8974,"Ġwheel":8975,"Ġdistinctive":8976,"imm":8977,"Ġgang":8978,"ported":8979,"Ġagency":8980,"Ġpace":8981,"ĠSony":8982,"Ġgod":8983,"Ġprepare":8984,"Ġsubspecies":8985,"iph":8986,"Ġtex":8987,"Ġbay":8988,"Ġacceler":8989,"ĠFederation":8990,"Ġ1904":8991,"uki":8992,"Ġbeautiful":8993,"owed":8994,"Ġobtain":8995,"Ġarticles":8996,"azing":8997,"ĠPrior":8998,"ĠMaur":8999,"rows":9000,"imen":9001,"Ġevolved":9002,"Ġ1906":9003,"rac":9004,"also":9005,"Ġfounder":9006,"Ġallies":9007,"do":9008,"sts":9009,"plete":9010,"folk":9011,"Ġearning":9012,"Ġsurgery":9013,"ascar":9014,"ĠProgram":9015,"oa":9016,"Ġstores":9017,"Ġshield":9018,"Ġrepeatedly":9019,"Two":9020,"pan":9021,"ĠSaturday":9022,"Ġmeat":9023,"ĠEdge":9024,"Ġbiographer":9025,"Ġpalace":9026,"Ġ56":9027,"ĠWilhelm":9028,"ĠGraham":9029,"erk":9030,"ĠGrey":9031,"ĠNar":9032,"riptions":9033,"Ġclearly":9034,"Ġpredecessor":9035,"esses":9036,"Ġslaves":9037,"Ġelectron":9038,"Ġdisagre":9039,"ĠSwitzerland":9040,"Ġdistinguished":9041,"vant":9042,"rock":9043,"Ġgate":9044,"Ġphilosophy":9045,"mi":9046,"Ġmental":9047,"Ġrig":9048,"Ġremarked":9049,"eded":9050,"Ġabund":9051,"soft":9052,"aughters":9053,"Files":9054,"Ġsignal":9055,"Ġapartment":9056,"Ġloop":9057,"ihanna":9058,"Ġchoose":9059,"Ġsynd":9060,"Ġcarriers":9061,"ĠMagn":9062,"Ġfrust":9063,"annon":9064,"Ġbattalions":9065,"Ġcircumstances":9066,"Ġ1870":9067,"Å«":9068,"Ġpron":9069,"Ġquarterback":9070,"ĠBusiness":9071,"rov":9072,"ardo":9073,"Ġsurrend":9074,"Ġperceived":9075,"Ġmeetings":9076,"Ġgap":9077,"ĠRico":9078,"Ġtriple":9079,"Ġvs":9080,"Ġbombs":9081,"OS":9082,"Ġwasn":9083,"emen":9084,"ĠVis":9085,"Ġwestward":9086,"Ġblocks":9087,"Ġattained":9088,"Ġvulner":9089,"eland":9090,"apolis":9091,"ĠCow":9092,"Ġsatellite":9093,"Ġgust":9094,"Ġcurren":9095,"ĠAbbey":9096,"bow":9097,"Ġcoinc":9098,"Ġstorage":9099,"ĠLiz":9100,"Ġdrugs":9101,"ĠDigital":9102,"ĠEconom":9103,"mingham":9104,"Ġcivilian":9105,"held":9106,"ĠAustrian":9107,"Ġ170":9108,"Ġmatters":9109,"Ġphone":9110,"Ġideal":9111,"Ġspotted":9112,"Ġwhilst":9113,"Ġconservative":9114,"Ġreaders":9115,"Ġfalse":9116,"Ġvertical":9117,"yler":9118,"Ġdominant":9119,"Ġprinted":9120,"ĠOklahoma":9121,"Ġvel":9122,"venth":9123,"Ġuseful":9124,"Ġfixed":9125,"Ġtyphoon":9126,"ĠCR":9127,"ĠRidge":9128,"hyl":9129,"Ġarmour":9130,"ĠPersian":9131,"Ġvisiting":9132,"Ġsket":9133,"92":9134,"Ġpeaking":9135,"erg":9136,"ĠRen":9137,"ĠBlood":9138,"Ġfriendship":9139,"east":9140,"lain":9141,"Ġdemanded":9142,"Ġinstitution":9143,"otal":9144,"agh":9145,"Ġplanets":9146,"Ġretain":9147,"Ġlegacy":9148,"ĠSnow":9149,"Ġsimilarly":9150,"ĠMurphy":9151,"Ġprotein":9152,"Ġboss":9153,"inian":9154,"Ġholid":9155,"estyle":9156,"ĠCampaign":9157,"Ġillegal":9158,"ĠHungary":9159,"piece":9160,"Ġsisters":9161,"Ġstrict":9162,"Ġvast":9163,"ĠDenmark":9164,"jan":9165,"ni":9166,"atern":9167,"Ġfastest":9168,"ĠTerrit":9169,"Ġinsisted":9170,"person":9171,"ĠChand":9172,"ĠDragon":9173,"Ġgard":9174,"Ġreconnaissance":9175,"Ġcreator":9176,"ĠSche":9177,"ĠHalo":9178,"fr":9179,"eding":9180,"aks":9181,"Ġquiet":9182,"uly":9183,"stan":9184,"Ġintellect":9185,"ĠRailroad":9186,"ĠPrize":9187,"ĠHarv":9188,"Ġportions":9189,"Ġsimultaneously":9190,"Ġphenomen":9191,"je":9192,"ĠBh":9193,"ghan":9194,"Ġ'\"":9195,"ĠRecord":9196,"Ġcasting":9197,"Ġfemin":9198,"Ġcomfort":9199,"ocation":9200,"Ġseriously":9201,"aux":9202,"case":9203,"aro":9204,"anches":9205,"irty":9206,"Ġyield":9207,"Ġmainland":9208,"Ġdemands":9209,"Ġalive":9210,"Ġrub":9211,"ĠKl":9212,"ĠAtlanta":9213,"Ġalternate":9214,"Ġautobi":9215,"Ġbehaviour":9216,"Ġlanes":9217,"Ġrevenue":9218,"ested":9219,"Ġjustice":9220,"ĠBaseball":9221,"Ġdrivers":9222,"III":9223,"ĠCycl":9224,"NC":9225,"ĠBilly":9226,"Ġaudition":9227,"Ġorchestra":9228,"ĠDylan":9229,"Ġconsole":9230,"Ġpersonally":9231,"ĠYankees":9232,"odox":9233,"regation":9234,"Ġstruggled":9235,"Ġarmies":9236,"Ġjobs":9237,"Ġenlisted":9238,"ĠSoon":9239,"osm":9240,"ĠTokyo":9241,"ĠRing":9242,"ĠLov":9243,"ĠNik":9244,"ĠUE":9245,"Ġpromised":9246,"ĠMadag":9247,"ĠDelaware":9248,"Ġobvious":9249,"ĠPerry":9250,"azines":9251,"ĠHarvey":9252,"ĠInternet":9253,"Ġcod":9254,"tha":9255,"Ġthor":9256,"Ġincreases":9257,"Ġdiver":9258,"Ġmigr":9259,"ouver":9260,"Ġrevers":9261,"Ġterror":9262,"flu":9263,"Ġcounties":9264,"Ġdiscovers":9265,"Ġcompliment":9266,"ĠPitts":9267,"four":9268,"ĠkW":9269,"ĠLex":9270,"oons":9271,"Ġcontinu":9272,"Ġaffect":9273,"Ġbombing":9274,"ĠBomb":9275,"Ġcompens":9276,"Ġlayer":9277,"2000":9278,"umps":9279,"Ġroots":9280,"ĠSuch":9281,"Ġguitarist":9282,"Ġpursue":9283,"Ġstrengthened":9284,"Ġtack":9285,"ĠAld":9286,"ĠHop":9287,"SA":9288,"ĠCher":9289,"Ġbelieving":9290,"Ġfactory":9291,"Ġabsol":9292,"Ġ130":9293,"Ġmarketing":9294,"OT":9295,"Ġpages":9296,"rip":9297,"Ġheading":9298,"claimed":9299,"ĠProm":9300,"ĠFem":9301,"Ġstring":9302,"ultan":9303,"Ġathletes":9304,"hous":9305,"Ġdiscont":9306,"ĠKarl":9307,"Ġclothing":9308,"ĠJuan":9309,"Ġruling":9310,"Ġbonus":9311,"mund":9312,"ĠTel":9313,"tario":9314,"rank":9315,"Ġsq":9316,"terbury":9317,"Ġartific":9318,"2008":9319,"ecticut":9320,"Ġchamber":9321,"Ġculmin":9322,"Ġpatron":9323,"MI":9324,"Ġpione":9325,"oustic":9326,"rient":9327,"Ġframe":9328,"Ġports":9329,"des":9330,"warf":9331,"Ġdelivery":9332,"Ġdemolished":9333,"Ġforecast":9334,"Ġtheater":9335,"ĠMik":9336,"ĠClar":9337,"ĠEP":9338,"ĠMichel":9339,"eries":9340,"Ġ57":9341,"Ġoverseas":9342,"inces":9343,"ĠRat":9344,"Ġdefences":9345,"irts":9346,"she":9347,"Ġaccum":9348,"ĠLeslie":9349,"Ġdeterior":9350,"rous":9351,"Ġpropag":9352,"ĠOriginal":9353,"Ġsucceed":9354,"asant":9355,"ĠLang":9356,"2010":9357,"Ġcompounds":9358,"Ġsettlers":9359,"Ġrenov":9360,"Ġlegislature":9361,"Ġwaiting":9362,"ĠImpact":9363,"Ġengage":9364,"ĠSmall":9365,"ĠSeven":9366,"Many":9367,"ĠRights":9368,"ĠBarry":9369,"anguage":9370,"ĠEnterprise":9371,"Ġmobile":9372,"Ġbid":9373,"ania":9374,"ĠInn":9375,"owned":9376,"ensively":9377,"Ġhighways":9378,"Ġguilty":9379,"Ġaltered":9380,"Ġcancel":9381,"aja":9382,"itis":9383,"ĠNixon":9384,"Ġaftermath":9385,"Ġdecisions":9386,"Ġoblig":9387,"Ġvoy":9388,"alling":9389,"ĠAllies":9390,"raction":9391,"ĠMadagascar":9392,"Ġsick":9393,"ulous":9394,"ifies":9395,"Ġ1901":9396,"ĠOntario":9397,"Ġfriendly":9398,"Ġcampaigns":9399,"Pl":9400,"Ġ58":9401,"Ġsecretary":9402,"Ġorn":9403,"Ġexpand":9404,"Ġdrink":9405,"Ġsurpass":9406,"spe":9407,"ĠGray":9408,"Ġpanel":9409,"otte":9410,"Ġdissipated":9411,"Ġshipping":9412,"Ġorganisation":9413,"aments":9414,"ĠDa":9415,"Ġscen":9416,"Ġimprovements":9417,"Ġconversion":9418,"fle":9419,"atropical":9420,"Ġpermitted":9421,"Ġmusician":9422,"Ġcup":9423,"Ġdancing":9424,"ĠBroadway":9425,"Ġsalt":9426,"ĠMuch":9427,"ĠChel":9428,"uese":9429,"Ġhoriz":9430,"Ġkiss":9431,"Ġconfron":9432,"Ġlooks":9433,"Ġaerial":9434,"ĠObama":9435,"Ġtight":9436,"Ġexpression":9437,"ĠBrig":9438,"ĠAmy":9439,"Ġstress":9440,"ags":9441,"Ġgraduated":9442,"Ġobservations":9443,"Ġacknowledged":9444,"abe":9445,"oker":9446,"Ġconcentration":9447,"Ġdanger":9448,"ivation":9449,"ĠEdwards":9450,"hum":9451,"ĠPle":9452,"ĠEvery":9453,"ĠVe":9454,"ancouver":9455,"ĠRoll":9456,"Ġtravels":9457,"Ġobjective":9458,"ĠFurthermore":9459,"ĠConnecticut":9460,"Ġ($":9461,"Ġmining":9462,"Ġpublications":9463,"Ġerected":9464,"Ġwealthy":9465,"Ġwait":9466,"Ġtrouble":9467,"itudes":9468,"entle":9469,"Ġelevation":9470,"ĠABC":9471,"ĠBaker":9472,"ĠPars":9473,"ipper":9474,"Ġplus":9475,"Ġmayor":9476,"Ġsolar":9477,"Ġindicating":9478,"Ġ1903":9479,"ĠDefence":9480,"itals":9481,"ĠLithuan":9482,"Ġfewer":9483,"2007":9484,"Ġvenue":9485,"mod":9486,"ĠRihanna":9487,"Ġprove":9488,"upiter":9489,"redits":9490,"Ġevacuated":9491,"ĠBirmingham":9492,"Ind":9493,"Ġspir":9494,"keeper":9495,"Ġorigins":9496,"ĠCanterbury":9497,"Ġinterpretation":9498,"Ġrequires":9499,"Ġstationed":9500,"ĠWorks":9501,"Ġsitting":9502,"Ġranging":9503,"ĠArnold":9504,"ĠAR":9505,"ĠMaj":9506,"Ġexecution":9507,"Several":9508,"pent":9509,"adier":9510,"Ġpale":9511,"Ġoriginated":9512,"Ġremoval":9513,"Ġraids":9514,"ĠWayne":9515,"ĠPhoenix":9516,"Ã¦":9517,"Ġwrestling":9518,"ĠMrs":9519,"arry":9520,"Ġmac":9521,"Ġdebt":9522,"Ġannouncement":9523,"iracy":9524,"ĠFarm":9525,"Ġdoubt":9526,"itively":9527,"ĠHaving":9528,"Ġturret":9529,"rin":9530,"Ġhapp":9531,"ugg":9532,"Ġarrangements":9533,"ĠHudson":9534,"Ġchapel":9535,"Ġrebellion":9536,"Ġbaby":9537,"angel":9538,"Ġmagazines":9539,"Ġsung":9540,"asa":9541,"ĠSet":9542,"master":9543,"Ġfeels":9544,"ennium":9545,"Ġcelebrated":9546,"Ġjurisd":9547,"pow":9548,"Ġrealized":9549,"hears":9550,"ĠFif":9551,"Ġanth":9552,"Ġextratropical":9553,"Ġlisten":9554,"Ġdonated":9555,"Ġdefending":9556,"Ġ1902":9557,"Ġconnect":9558,"ĠMint":9559,"Ġranking":9560,"ista":9561,"Ġhorn":9562,"otyp":9563,"Ġapproaching":9564,"Ġsteps":9565,"Ġshorter":9566,"Ġexplan":9567,"ĠMountains":9568,"Ġaspect":9569,"ĠCommunity":9570,"Ġhook":9571,"ĠSpart":9572,"ĠPlayers":9573,"Ġcolleagues":9574,"ĠVik":9575,"Ġinsects":9576,"ĠIran":9577,"à¸":9578,"pty":9579,"hers":9580,"Ġconsidering":9581,"Dav":9582,"Ġconnecting":9583,"Ġliquid":9584,"Ġsupple":9585,"Ġsoldier":9586,"Ġinitiated":9587,"ĠTrophy":9588,"adal":9589,"Ġconscious":9590,"ĠUniversal":9591,"ĠPubl":9592,"OK":9593,"join":9594,"Ġdiscussion":9595,"ĠRub":9596,"Ġdecide":9597,"Ġtheatrical":9598,"idal":9599,"Ġpublishing":9600,"ĠShaw":9601,"Ġbattlecru":9602,"Ġvolumes":9603,"Ġgathered":9604,"sm":9605,"allas":9606,"Ġplacing":9607,"Ġhypothes":9608,"Ġtubes":9609,"ĠAdministration":9610,"Hung":9611,"ĠMcL":9612,"vo":9613,"ĠSoul":9614,"ĠVancouver":9615,"ĠMcCartney":9616,"Ġwithdrawal":9617,"bal":9618,"ĠJosh":9619,"Ġcannon":9620,"ĠCost":9621,"ĠNear":9622,"ĠEdin":9623,"Ġexactly":9624,"ĠPearl":9625,"Ġongoing":9626,"Ġhosts":9627,"Ġfounding":9628,"Ġindicates":9629,"Ġmonitor":9630,"Ġlandscape":9631,"Ġtalent":9632,"ĠTon":9633,"Ġcomed":9634,"Ġdemocr":9635,"elta":9636,"ĠPotter":9637,"Ġ360":9638,"Ġappropriate":9639,"ĠAy":9640,"ĠCra":9641,"Ġneighbour":9642,"Ġguarant":9643,"Ġmarkets":9644,"ĠMorrison":9645,"Ġstrategic":9646,"Ġbones":9647,"Ġhidden":9648,"Ġcollapsed":9649,"Ġrede":9650,"hin":9651,"Ġvisits":9652,"autical":9653,"ĠSak":9654,"avor":9655,"agger":9656,"ĠDrive":9657,"Ġstriking":9658,"ĠHampshire":9659,"Ġstick":9660,"ayan":9661,"ĠJohnny":9662,"Ġcub":9663,"ĠBernard":9664,"alph":9665,"Ġclosest":9666,"ĠJimmy":9667,"ĠJonathan":9668,"athers":9669,"Will":9670,"Ġtort":9671,"Ġspecimen":9672,"ocy":9673,"Ġ72":9674,"ĠSig":9675,"Ġnet":9676,"Ġencl":9677,"Ġmush":9678,"Ġchallenged":9679,"Donald":9680,"oria":9681,"Ġorganised":9682,"amental":9683,"El":9684,"onica":9685,"iper":9686,"ricts":9687,"ĠPeace":9688,"Ġduo":9689,"five":9690,"Ġfantasy":9691,"ĠManu":9692,"ĠChampions":9693,"pled":9694,"Ġexposure":9695,"rama":9696,"irates":9697,"ĠOpp":9698,"boat":9699,"eared":9700,"ĠDS":9701,"aircraft":9702,"Ġattending":9703,"Ġseized":9704,")\"":9705,"ĠMans":9706,"olve":9707,"terior":9708,"Ġconfront":9709,"Ġconcentrated":9710,"igenous":9711,"aman":9712,"Ġannually":9713,"ĠWag":9714,"ĠCharts":9715,"Ġglac":9716,"ĠForeign":9717,"900":9718,"uzzle":9719,"ĠRachel":9720,"ĠFel":9721,"ĠMcM":9722,"Ġcorps":9723,"ĠKeith":9724,"ĠWindows":9725,"ĠGriff":9726,"2009":9727,"his":9728,"Ġmembership":9729,"Ġidentify":9730,"ĠGate":9731,"Ġspac":9732,"overed":9733,"Ġoffense":9734,"ieth":9735,"ĠFriday":9736,"imetres":9737,"ĠPakistan":9738,"uart":9739,"Ã°":9740,"Ġodd":9741,"Ġyoungest":9742,"Ġdogs":9743,"Ġranges":9744,"ĠBath":9745,"ĠPatt":9746,"ĠYe":9747,"ĠSymph":9748,"Ã¼r":9749,"Ġessential":9750,"Ġvoiced":9751,"ĠNapoleon":9752,"ĠEdinburgh":9753,"Ġpartial":9754,"phone":9755,"Ġinvestigate":9756,"icity":9757,"Ġnavy":9758,"ĠChampion":9759,"Ġtrough":9760,"ecution":9761,"ĠMarie":9762,"Ġwalking":9763,"Ġradical":9764,"ĠCov":9765,"Ġqualified":9766,"ĠTriple":9767,"Ġbreat":9768,"Ġbacter":9769,"Ġdressed":9770,"ĠHann":9771,"ĠStat":9772,"ĠShip":9773,"Ġbasin":9774,"Ġswitch":9775,"ĠAbd":9776,"otion":9777,"porting":9778,"Ġdesert":9779,"beat":9780,"ĠEventually":9781,"ĠTodd":9782,"Ġestablishing":9783,"ĠBradman":9784,"stage":9785,"aders":9786,"ĠGoth":9787,"ĠLess":9788,"Ġportrayal":9789,"Ġski":9790,"Ġmagic":9791,"Ġceased":9792,"Ġlimits":9793,"Ġpredict":9794,"ĠMeteor":9795,"ĠTit":9796,"Ġanime":9797,"week":9798,"Ġsupplied":9799,"ti":9800,"ĠJupiter":9801,"Ġjury":9802,"Ġprize":9803,"Arthur":9804,"Ġwatershed":9805,"Ġadvertising":9806,"Ġhydrogen":9807,"Ġassembly":9808,"Ġdelay":9809,"Ġstrongest":9810,"cow":9811,"ĠHugh":9812,"oviÄĩ":9813,"white":9814,"Ġbirthday":9815,"Ġexercise":9816,"Ġpromotional":9817,"Ġcircle":9818,"Ġ76":9819,"Ġbeam":9820,"ĠLion":9821,"Ġregime":9822,"ĠConvention":9823,"Ġflooded":9824,"Ġquestioned":9825,"Ġaggressive":9826,"Ġphotographs":9827,"sl":9828,"roying":9829,"Ġfortress":9830,"ĠBobby":9831,"umble":9832,"Ġconservation":9833,"hammad":9834,"Ġmerely":9835,"ensed":9836,"Ġunderwent":9837,"Ġmemor":9838,"Ġdin":9839,"Ġreplied":9840,"lad":9841,"Ġforg":9842,"ĠLegend":9843,"iche":9844,"Ġputting":9845,"Ġemployment":9846,"Ġsending":9847,"Ġchampions":9848,"Ġshift":9849,"Ġprovision":9850,"Before":9851,"ĠWor":9852,"ĠFat":9853,"Ġexha":9854,"bes":9855,"Ġtox":9856,"ĠEy":9857,"ĠOd":9858,"Ġconventional":9859,"ĠChronicle":9860,"that":9861,"Ġ63":9862,"Ġsoftware":9863,"ĠMission":9864,"Ġforth":9865,"ĠNine":9866,"ologies":9867,"ĠAfghan":9868,"Ã©s":9869,"Ġunclear":9870,"bel":9871,"released":9872,"Ġfurn":9873,"ĠYorkshire":9874,"assador":9875,"Ġlawyer":9876,"Ġrepresentatives":9877,"ĠDemocrats":9878,"Ġticket":9879,"haw":9880,"Ġpapers":9881,"ĠNAS":9882,"Ġoutput":9883,"Ġcoff":9884,"anner":9885,"Ġattitude":9886,"Ġ95":9887,"Ġguide":9888,"ĠBosn":9889,"illes":9890,"Ġcoup":9891,"ĠTracy":9892,"Ġimagery":9893,"Ġlawsu":9894,"istent":9895,"oca":9896,"Ġcoat":9897,"Ġmonaster":9898,"Ġcommentary":9899,"Ġthirteen":9900,"Ġsharp":9901,"Ġ66":9902,"Ġaggreg":9903,"ĠPortuguese":9904,"ashes":9905,"ĠMeg":9906,"ĠReserve":9907,"Ġdaughters":9908,"Ġendors":9909,"Ġballad":9910,"Ġpersons":9911,"Ġwicket":9912,"Ġcock":9913,"amas":9914,"atever":9915,"Ġteach":9916,"ĠVillage":9917,"roat":9918,"Ġtenure":9919,"Ġsurrendered":9920,"Ġgrave":9921,"Ġarrives":9922,"Ġtranslation":9923,"Ġaccompanying":9924,"Is":9925,"atches":9926,"Ġplain":9927,"riors":9928,"ĠBrothers":9929,"Ġbond":9930,"ĠBeng":9931,"Ġprovincial":9932,"ĠChristianity":9933,"Ġempire":9934,"Ġsuccession":9935,"Ġparody":9936,"ĠPersonal":9937,"Ġlegit":9938,"Pr":9939,"feld":9940,"lon":9941,"Ġ800":9942,"Ġdubbed":9943,"ĠLas":9944,"Ġ77":9945,"Ġcruc":9946,"ĠDwight":9947,"eyer":9948,"Ġreinforcements":9949,"called":9950,"ĠCritics":9951,"olen":9952,"ĠLat":9953,"Ġcharter":9954,"Ġbone":9955,"Ġbishop":9956,"Ex":9957,"OC":9958,"Ġstreak":9959,"ĠGary":9960,"ellation":9961,"uras":9962,"illiant":9963,"Ġbranches":9964,"Ġprices":9965,"Ġelectricity":9966,"ĠBoys":9967,"arted":9968,"Ġcomponents":9969,"Ġqueen":9970,"Ġcousin":9971,"Ġmal":9972,"ĠNa":9973,"Ġburial":9974,"Ġassembled":9975,"Ġcomprom":9976,"Ġstarring":9977,"ĠFinland":9978,"ĠArgentina":9979,"Ġmovies":9980,"Like":9981,"],":9982,"ĠYears":9983,"Ġretro":9984,"Ġpictures":9985,"asm":9986,"ĠBach":9987,"Ġspaces":9988,"Ġterrain":9989,"Ġemphasis":9990,"Ġbrig":9991,"type":9992,"ĠMem":9993,"embr":9994,"Ġsang":9995,"ĠLib":9996,"Ġexclusively":9997,"icle":9998,"but":9999,"Ġbeats":10000,"Ġunless":10001,"ibilities":10002,"Ġreveal":10003,"ĠQueensland":10004,"onian":10005,"Ġben":10006,"ĠHeritage":10007,"Ġfill":10008,"Ġmature":10009,"Ġdrinking":10010,"Ġprecipitation":10011,"Ġles":10012,"Ġgovernments":10013,"Ġcompeting":10014,"Ġdevices":10015,"Ġexperimental":10016,"Ġweekly":10017,"ĠVictorian":10018,"Ġtopped":10019,"ĠAlice":10020,"Ġprev":10021,"ĠDub":10022,"ĠWii":10023,"ĠLt":10024,"Ġexternal":10025,"aze":10026,"Ġchest":10027,"Ġexcellent":10028,"ME":10029,"Ġscattered":10030,"ĠGirls":10031,"Ġstops":10032,"Ġisot":10033,"Ġuncom":10034,"Ġcenters":10035,"Ġexpert":10036,"Ġtraded":10037,"Ġfailing":10038,"Ġdefinition":10039,"Ġ140":10040,"Ġfunny":10041,"ĠMonte":10042,"ĠRangers":10043,"gie":10044,"Ġdevelopers":10045,"Ġstronger":10046,"2005":10047,"2006":10048,"Ġflowers":10049,"ĠHawaii":10050,"Ġinvent":10051,"Ġproductions":10052,"Ġplatforms":10053,"ĠHungarian":10054,"itched":10055,"Ġconsiders":10056,"from":10057,"pike":10058,"itarian":10059,"Ġfeeding":10060,"ĠLaur":10061,"Ġeducational":10062,"written":10063,"Ġstere":10064,"ĠFund":10065,"Ġacoustic":10066,"Ġslave":10067,"Ġredes":10068,"Ġidentical":10069,"grade":10070,"Ġuncle":10071,"eto":10072,"Ġbanned":10073,"Ġpel":10074,"Ġreverse":10075,"Ġcomponent":10076,"ĠEmmy":10077,"Ġcontribution":10078,"Ġtalking":10079,"Ġdevast":10080,"acles":10081,"ĠGene":10082,"Ġcompr":10083,"Ġreducing":10084,"ĠProtest":10085,"Ġvaried":10086,"enesis":10087,"ĠBooks":10088,"Ġfossil":10089,"ĠUEFA":10090,"Other":10091,"lem":10092,"ĠTig":10093,"ĠHur":10094,"ĠÃĨthel":10095,"rastructure":10096,"Ġbare":10097,"Ġsleep":10098,"Ġduration":10099,"Ġproceeded":10100,"Ġraising":10101,"month":10102,"Ġboilers":10103,"Ġscr":10104,"Ġintersects":10105,"ĠPrix":10106,"ĠHonor":10107,"Ġtomb":10108,"ĠDale":10109,"Ġedited":10110,"Ġdestroying":10111,"itely":10112,"ĠGlen":10113,"ĠOliver":10114,"ĠTransportation":10115,"Ġswimming":10116,"SR":10117,"ĠOm":10118,"Ġ1860":10119,"Ġrequirements":10120,"Ġoverwhel":10121,"Ġcad":10122,"Ġreward":10123,"ĠLen":10124,"rod":10125,"oting":10126,"Ġatomic":10127,"ĠMarvel":10128,"Ġelectrical":10129,"ĠNorfolk":10130,"ĠNCAA":10131,"Ġtexts":10132,"uating":10133,"Ġfourteen":10134,"2011":10135,"Ã¶n":10136,"Ġearthquake":10137,"PC":10138,"ĠCricket":10139,"ĠJama":10140,"Ġadventure":10141,"gom":10142,"rehens":10143,"Ġheir":10144,"ensis":10145,"Ġpenet":10146,"ĠCollins":10147,"Ġsamples":10148,"Ġdensity":10149,"ĠMother":10150,"ĠKap":10151,"Ġtrading":10152,"Ġdestroyer":10153,"likely":10154,"tery":10155,"ĠDak":10156,"ulty":10157,"Ġquad":10158,"cour":10159,"xim":10160,"Ġcens":10161,"Ġdrag":10162,"Ġportr":10163,"Ġtip":10164,"Ġsad":10165,"ĠDiam":10166,"Ġairfield":10167,"Ġhumor":10168,"Ġburned":10169,"Ġliberal":10170,"iciency":10171,"Ġwish":10172,"andom":10173,"ĠNatural":10174,"axy":10175,"Ġarchitectural":10176,"unning":10177,"Ġhem":10178,"ource":10179,"ĠAnc":10180,"through":10181,"about":10182,"ĠTurner":10183,"encing":10184,"Ġdict":10185,"Ġlie":10186,"ĠMong":10187,"cks":10188,"Ġpolar":10189,"Ġinduct":10190,"ĠAx":10191,"ĠIsa":10192,"Ġinvestment":10193,"Ġrespective":10194,"Ġimmigr":10195,"Ġtalks":10196,"ĠTrail":10197,"Ġartificial":10198,"Music":10199,"ĠType":10200,"ĠMand":10201,"ĠPil":10202,"ĠJoy":10203,"Ġphrase":10204,"Ġsixteen":10205,"ĠTak":10206,"Ġunw":10207,"Ġcharity":10208,"Ġpraising":10209,"ĠHowe":10210,"ĠHardy":10211,"Ġdollar":10212,"ĠCelt":10213,"ĠMalt":10214,"ĠMaya":10215,"ffield":10216,"razy":10217,"Ġbath":10218,"Ġradiation":10219,"ĠMedical":10220,"Mich":10221,"Ġtoured":10222,"ĠTob":10223,"Ġwaste":10224,"Ġ61":10225,"Ġflows":10226,"Ġtactics":10227,"etheless":10228,"Ã«":10229,"Ġshares":10230,"Ġconnections":10231,"ĠServices":10232,"ĠGallery":10233,"gon":10234,"ingham":10235,"Ġprofession":10236,"ĠBoat":10237,"Ġparks":10238,"Ġconsistent":10239,"cal":10240,"Ġcopper":10241,"Ġphotography":10242,"PG":10243,"avia":10244,"Ġusers":10245,"ginning":10246,"half":10247,"Ġweigh":10248,"ĠSeason":10249,"Ġparent":10250,"150":10251,"isting":10252,"Ġlabour":10253,"ĠHarbor":10254,"De":10255,"hop":10256,"Ġfisher":10257,"ĠLost":10258,"ollo":10259,"ĠLiberal":10260,"Ġeval":10261,"Ġamateur":10262,"readn":10263,"Ġ1893":10264,"Ġcleared":10265,"Ġtonnes":10266,"Ġcyl":10267,"Ġpatients":10268,"ĠFleming":10269,"Ġopportunities":10270,"Ġthunder":10271,"Ġcommenced":10272,"Ġreduction":10273,"Ġdispers":10274,"Ġtaxes":10275,"ĠMoscow":10276,"Ġtherap":10277,"ario":10278,"Ġpush":10279,"story":10280,"ĠFlying":10281,"Ġhybr":10282,"Ġmechanical":10283,"Ġreorgan":10284,"ĠEug":10285,"anim":10286,"igious":10287,"Ġattorney":10288,"Ġtransported":10289,"Ġautumn":10290,"TWC":10291,"flow":10292,"ĠBlu":10293,"such":10294,"rooms":10295,"Ġsimpl":10296,"onium":10297,"Ġadvised":10298,"Ġqualifying":10299,"Ġtheore":10300,"Ġexists":10301,"Ġrelocated":10302,"Ġimprovement":10303,"ups":10304,"Ġlegislative":10305,"itting":10306,"ashi":10307,"ĠBroadcast":10308,"Ġconstitutional":10309,"owski":10310,"Ġexceed":10311,"cester":10312,"Ġelig":10313,"Ġ1896":10314,"Ġcutting":10315,"Ġcamps":10316,"screen":10317,"ĠBak":10318,"ĠPa":10319,"Ġ1898":10320,"illo":10321,"Ġcontinuous":10322,"cott":10323,"top":10324,"ĠBurton":10325,"Ġhandled":10326,"ĠHob":10327,"avery":10328,"ĠAftermath":10329,"ussion":10330,"Ġcommanders":10331,"orded":10332,"Ġrevolt":10333,"ĠHarvard":10334,"Ġcir":10335,"Ġgray":10336,"Ġobsc":10337,"Ġsurvival":10338,"Ġunderstood":10339,"Ġcrops":10340,"ĠJar":10341,"Ġ73":10342,"expected":10343,"ĠGor":10344,"ĠTraining":10345,"Ġcommanding":10346,"urricanes":10347,"lining":10348,"Ġuranium":10349,"SS":10350,"ĠPink":10351,"ĠBelgian":10352,"rien":10353,"quest":10354,"ĠMarge":10355,"ĠMarket":10356,"Ġwithdrawn":10357,"ĠOslo":10358,"ĠPittsburgh":10359,"Ġpairs":10360,"ĠTNA":10361,"Ġvoting":10362,"Ġclock":10363,"ĠDyn":10364,"ĠLock":10365,"legraph":10366,"Ġnit":10367,"Ġmini":10368,"ĠPam":10369,"ĠSyria":10370,"Ġwire":10371,"stand":10372,"Ġmanga":10373,"Ġminority":10374,"Ġmelody":10375,"Ġlearns":10376,"ioc":10377,"isive":10378,"uto":10379,"ĠRab":10380,"seud":10381,"2003":10382,"Ġprogramming":10383,"ĠLloyd":10384,"Ġearn":10385,"Ġpromin":10386,"ĠAngl":10387,"Ġnautical":10388,"olar":10389,"ĠJun":10390,"ĠSwiss":10391,"ĠCre":10392,"ĠKo":10393,"Ġvirus":10394,"ĠPy":10395,"Ġconceived":10396,"eston":10397,"gel":10398,"Ġhitting":10399,"Ġdisplaced":10400,"Ġenthusi":10401,"atra":10402,"ĠTan":10403,"oda":10404,"ĠPruss":10405,"Ġexperiments":10406,"Ġreferring":10407,"Ġworn":10408,"asks":10409,"Ġprinciples":10410,"Ġvoices":10411,"ĠAntonio":10412,"rus":10413,"Ġrevised":10414,"len":10415,"Ġindeed":10416,"Ġprovinces":10417,"Ġrocks":10418,"ĠBald":10419,"ĠBaby":10420,"ationally":10421,"Ġseed":10422,"ĠHughes":10423,"ĠPeters":10424,"Ġrivalry":10425,"ĠProfessor":10426,"Mc":10427,"Ġtraveling":10428,"Ġprisoner":10429,"ĠCommunist":10430,"tes":10431,"uez":10432,"adesh":10433,"Ġsovereign":10434,"Ġ62":10435,"ĠSwift":10436,"Ġrelatives":10437,"Ġapproaches":10438,"Ġexplicit":10439,"Ġproposals":10440,"ĠSimilarly":10441,"ĠBennett":10442,"Ã¥":10443,"Ġsoph":10444,"Ġpap":10445,"Ġstuff":10446,"Ġdischar":10447,"Ġlights":10448,"aha":10449,"Ġwarfare":10450,"Ġtraditions":10451,"En":10452,"orig":10453,"ĠJerry":10454,"Ġrepresentation":10455,"Ġ78":10456,"Ġwarnings":10457,"utton":10458,"ĠAndre":10459,"ĠIndonesia":10460,"AN":10461,"Ġextending":10462,"Upon":10463,"Ġabuse":10464,"Ġimpression":10465,"ĠPrim":10466,"Ġ1899":10467,"Another":10468,"Ġpreparing":10469,"ĠKam":10470,"ĠKane":10471,"ĠAdv":10472,"ĠRalph":10473,"Ġsignature":10474,"Ġcharacteristic":10475,"Ġcartoon":10476,"Ġmultiplayer":10477,"Ġcompound":10478,"Ġsumm":10479,"Christ":10480,"minister":10481,"Ġinterpreted":10482,"Ã¢":10483,"leans":10484,"ĠMayor":10485,"Ġtransportation":10486,"ĠNicholas":10487,"berry":10488,"ocket":10489,"Ġairing":10490,"Ġblocked":10491,"onial":10492,"ambers":10493,"Ġpowered":10494,"Ġfulf":10495,"ĠCurt":10496,"uri":10497,"umped":10498,"merce":10499,"Ġmedicine":10500,"Ġprotests":10501,"Ġinterviews":10502,"His":10503,"Ġcraft":10504,"ĠNi":10505,"Ġcarries":10506,"Ġcyclones":10507,"ĠMicrosoft":10508,"Ġrebels":10509,"Ġdisplays":10510,"Ġcreek":10511,"ĠPap":10512,"ocity":10513,"ĠDarwin":10514,"stance":10515,"Ġmarine":10516,"ĠGuinea":10517,"Ġtranslated":10518,"ĠCraig":10519,"var":10520,"ĠMond":10521,"Ġenforce":10522,"Ġpretty":10523,"ĠPictures":10524,"dest":10525,"Ġwished":10526,"icular":10527,"Ġfilmm":10528,"ĠJefferson":10529,"Ġsample":10530,"Ġrehears":10531,"ĠBird":10532,"ĠDavies":10533,"Ġcuts":10534,"Ġparticipation":10535,"Ġreforms":10536,"ĠFalls":10537,"ĠRud":10538,"Ġmarch":10539,"ĠOfficer":10540,"Ġjudg":10541,"Ġsalary":10542,"Ġpunk":10543,"ĠMust":10544,"Ġ1850":10545,"ĠCameron":10546,"ĠVincent":10547,"ĠSecurity":10548,"Ġabsent":10549,"Ġbacked":10550,"Ġarguing":10551,"Ġspoken":10552,"Over":10553,"Ġdistant":10554,"ĠZe":10555,"Ġcourses":10556,"Ġangle":10557,"ĠFormation":10558,"Ġgarn":10559,"arks":10560,"Ġrestore":10561,"Ġestimates":10562,"ĠDonald":10563,"Ġcabinet":10564,"Ġsings":10565,"Ġuncon":10566,"Ġlighting":10567,"Ġexclusive":10568,"ĠDescription":10569,"ĠAustin":10570,"Ġvictim":10571,"ĠSheffield":10572,"Ġsignificance":10573,"Ġruler":10574,"ĠPic":10575,"Ġreviewed":10576,"scar":10577,"ando":10578,"ĠChile":10579,"Ġpractical":10580,"Ġrecovery":10581,"Ġreinforced":10582,"ĠDallas":10583,"Ġmaintaining":10584,"Ġnerv":10585,"ĠFerr":10586,"Ġdrummer":10587,"Ġ\"...":10588,"Ġblues":10589,"ĠClay":10590,"Ġdistricts":10591,"Ġcertainly":10592,"Ġcinema":10593,"Ġconce":10594,"Ġreleg":10595,"ĠQuebec":10596,"erver":10597,"ĠCatherine":10598,"onge":10599,"Ġcontend":10600,"ĠAlaska":10601,"Ġcompetitive":10602,"iar":10603,"Ġdece":10604,"Ã©t":10605,"Ġpetition":10606,"Ġconven":10607,"ĠUpper":10608,"Ġextinct":10609,"Ġcommunications":10610,"Ġapplications":10611,"Ġmagnitude":10612,"Ġstatistics":10613,"Ġbeneath":10614,"RI":10615,"Ġloved":10616,"Ġtowers":10617,"ĠAuthority":10618,"Ġfest":10619,"Ġweb":10620,"Ġadvertis":10621,"Ġrecurring":10622,"ĠOrleans":10623,"2004":10624,"Ġvaluable":10625,"ĠSteel":10626,"ĠAgency":10627,"edia":10628,"Ġ87":10629,"Ġaccurate":10630,"ĠThose":10631,"osexual":10632,"Ġblind":10633,"Ġshifted":10634,"Ġlin":10635,"abilities":10636,"achute":10637,"Ġtested":10638,"castle":10639,"later":10640,"ĠHav":10641,"Ġupset":10642,"ĠFinally":10643,"ĠWells":10644,"Ġchore":10645,"atical":10646,"Ġ82":10647,"ĠOrange":10648,"utor":10649,"Ġkills":10650,"Ġscores":10651,"09":10652,"oded":10653,"ĠHerald":10654,"Ġshoulder":10655,"reens":10656,"utter":10657,"ometimes":10658,"Ġaft":10659,"itate":10660,"ĠMason":10661,"ĠAli":10662,"Ġvalid":10663,"ĠWallace":10664,"Ġpm":10665,"Ġhind":10666,"Ġsurve":10667,"Ġairline":10668,"affe":10669,"backs":10670,"ĠCathedral":10671,"Ġansw":10672,"ĠGlobe":10673,"Ġinclusion":10674,"ĠCass":10675,"Ġcrest":10676,"alls":10677,"Ġunlikely":10678,"landers":10679,"Ġdiverse":10680,"final":10681,"Ġ67":10682,"iously":10683,"Ġnoble":10684,"130":10685,"Ġskill":10686,"Ġfaces":10687,"%,":10688,"ĠSem":10689,"arting":10690,"aiden":10691,"lived":10692,"Ġlock":10693,"ĠPhys":10694,"asha":10695,"ĠGeoff":10696,"Ġgraduate":10697,"ĠConstantin":10698,"Ġbull":10699,"ĠRic":10700,"ĠGot":10701,"ĠKon":10702,"ĠOriginally":10703,"08":10704,"music":10705,"ĠEmer":10706,"Ġclar":10707,"Ġconsolid":10708,"Ġ74":10709,"Col":10710,"ĠHold":10711,"Ġclothes":10712,"Ġsummit":10713,"vet":10714,"ĠCad":10715,"Ġtheories":10716,"oids":10717,"isons":10718,"ĠSle":10719,"ĠChen":10720,"ĠCraw":10721,"iko":10722,"best":10723,"yd":10724,"ĠVel":10725,"icking":10726,"Ġparas":10727,"Ġsquadrons":10728,"Ġmoon":10729,"ĠPad":10730,"Ġ59":10731,"levard":10732,"Ġmorph":10733,"ĠCyrus":10734,"Ġsteep":10735,"Ġcharted":10736,"ĠQuest":10737,"Ġmerged":10738,"Tube":10739,"fly":10740,"ĠRio":10741,"ĠNev":10742,"ĠDefense":10743,"ĠParsons":10744,"ĠThunder":10745,"ĠJohnston":10746,"ĠOutstanding":10747,"ĠProvince":10748,"Ġdecorated":10749,"Ġid":10750,"Ġtours":10751,"Ġ700":10752,"ĠGrace":10753,"ĠTai":10754,"ĠStef":10755,"Ġmanage":10756,"ĠSega":10757,"ĠEff":10758,"Ġprocesses":10759,"ĠIsraeli":10760,"ĠBrazilian":10761,"hill":10762,"mn":10763,"Ġfate":10764,"enson":10765,"Ġprel":10766,"ĠSusan":10767,"gence":10768,"ĠKan":10769,"Ġcivilians":10770,"ĠYellow":10771,"Ġshallow":10772,"aping":10773,"Ġfrequency":10774,"Ġpersuaded":10775,"Ġsurprised":10776,"Ġbeaten":10777,"ĠUtah":10778,"ĠClassic":10779,"ĠOwen":10780,"ĠPrincip":10781,"Ġsegments":10782,"Ġreactions":10783,"eling":10784,"ĠLocal":10785,"Ġaccommodate":10786,"ĠDanish":10787,"Ġdemo":10788,"Ġdancers":10789,"Ġhills":10790,"ĠLem":10791,"veloped":10792,"ĠSom":10793,"ĠCultural":10794,"Ġliner":10795,"ĠRu":10796,"Ġdescent":10797,"cha":10798,"ĠGreater":10799,"Ġriding":10800,"Ġconfidence":10801,"Ġdrafted":10802,"ĠYam":10803,"Ġcomplained":10804,"ĠGa":10805,"ĠList":10806,"ĠInv":10807,"ĠBryan":10808,"Ed":10809,"ĠRichmond":10810,"mo":10811,"Ġimplemented":10812,"Ġfairly":10813,"Ġvulnerable":10814,"PS":10815,"Ġpassion":10816,"Ġcrimes":10817,"Ġsuspic":10818,"ĠFourth":10819,"Ġheritage":10820,"onsin":10821,"Ġpresentation":10822,"Ġ1897":10823,"Ġagriculture":10824,"Ġanswer":10825,"disc":10826,"Ġrejoin":10827,"Ġunexpected":10828,"ĠGuitar":10829,"north":10830,"rh":10831,"Ġindu":10832,"Ġcolors":10833,"Ġratio":10834,"Ġsoutheastern":10835,"Ġproportion":10836,"ĠMalaysia":10837,"ĠClarke":10838,"Ġgender":10839,"ĠFisher":10840,"Through":10841,"pine":10842,"ĠRena":10843,"Ġsentence":10844,"Ġjet":10845,"ĠMcKin":10846,"heric":10847,"ĠProp":10848,"ĠFBI":10849,"door":10850,"ritic":10851,"Ġaddressed":10852,"ĠActor":10853,"Ġcolumns":10854,"ĠHaz":10855,"Ġdevoted":10856,"ĠFu":10857,"ĠEve":10858,"Ġfeared":10859,"Ġembr":10860,"Te":10861,"Ġcant":10862,"urst":10863,"usalem":10864,"ĠSox":10865,"ulus":10866,"Ġâģ":10867,"Ġpotentially":10868,"Ġsailing":10869,"Ġvoyage":10870,"made":10871,"Ġcards":10872,"amount":10873,"ĠRest":10874,"ĠLink":10875,"rific":10876,"Ġjurisdiction":10877,"othy":10878,"Ġresearchers":10879,"ĠDeep":10880,"ĠPlant":10881,"ospel":10882,"250":10883,"Ġfram":10884,"Ġmood":10885,"avan":10886,"Ġinteraction":10887,"minster":10888,"Ġmerc":10889,"ĠMuhammad":10890,"izer":10891,"Ġwritings":10892,"Ġobservation":10893,"nels":10894,"itic":10895,"osaurs":10896,"Ġbeating":10897,"Ġoperates":10898,"Ġhanded":10899,"ĠExper":10900,"inis":10901,"aco":10902,"Ġjudges":10903,"ĠSalt":10904,"ĠCBS":10905,"Ġrequiring":10906,"ĠRegister":10907,"Bob":10908,"Ġpip":10909,"Ġnurs":10910,"Ġcommenting":10911,"Ġmythology":10912,"ĠâģĦ":10913,"Ġbeauty":10914,"Ġcategories":10915,"ĠGh":10916,"ometric":10917,"Down":10918,"isconsin":10919,"ĠYouTube":10920,"Ġtribe":10921,"ĠChelsea":10922,"Ġwine":10923,"Ġnat":10924,"ĠAirlines":10925,"ĠNeil":10926,"mediate":10927,"Ġkidn":10928,"gus":10929,"rating":10930,"Ġdisb":10931,"Ġamph":10932,"lington":10933,"Ġsimilarities":10934,"Ġtale":10935,"CO":10936,"Î±":10937,"Ġgene":10938,"Ġconfusion":10939,"parts":10940,"ĠAer":10941,"ĠJunior":10942,"Ġstudying":10943,"ucker":10944,"ÃŃn":10945,"gomery":10946,"Ġclin":10947,"Ġintervention":10948,"Ġrecept":10949,"Ġextensively":10950,"ĠArmstrong":10951,"Ġsculpture":10952,"enos":10953,"Ġmanip":10954,"Ġpole":10955,"Ġphysics":10956,"ĠLiter":10957,"Ġdiplomatic":10958,"AL":10959,"Ġfer":10960,"Ġfame":10961,"ĠCavalry":10962,"Ġfollowers":10963,"ĠEdition":10964,"Ġbreaks":10965,"ĠOverall":10966,"kh":10967,"rob":10968,"ĠMend":10969,"Ġadvancing":10970,"Ġpregnant":10971,"abl":10972,"Ġ68":10973,"Ġstatements":10974,"Ġhighlighted":10975,"Ġdense":10976,"ĠSign":10977,"ĠConservation":10978,"Ġchallenges":10979,"ĠKaiser":10980,"Ġgardens":10981,"hall":10982,"Ġinfrastructure":10983,"ĠNext":10984,"Ġopens":10985,"ĠScientology":10986,"Ġtoler":10987,"Ġhole":10988,"Ġefficient":10989,"Ġfasc":10990,"omed":10991,"Ġgaining":10992,"Ġ1895":10993,"ĠStudio":10994,"Ġsuddenly":10995,"Ġ88":10996,"ĠOrchest":10997,"Ġsentenced":10998,"ĠAmb":10999,"Ġembarked":11000,"ĠReich":11001,"ĠSpirit":11002,"ĠPriv":11003,"Ġprinciple":11004,"umbered":11005,"prof":11006,"just":11007,"Ġdwarf":11008,"osph":11009,"Ġstructural":11010,"Ġdisturbance":11011,"agers":11012,"Ã©n":11013,"Ġerror":11014,"tem":11015,"Ġrect":11016,"angular":11017,"Ġknocked":11018,"ĠLuke":11019,"ĠCardiff":11020,"production":11021,"ancellor":11022,"Ġboundaries":11023,"playing":11024,"ĠMinor":11025,"Ġpredators":11026,"ĠOfficial":11027,"ĠLarry":11028,"Ġdivorce":11029,"ĠSymphony":11030,"German":11031,"Ġties":11032,"ĠTerry":11033,"ĠLoc":11034,"ATO":11035,"inus":11036,"Ġfee":11037,"Ġslavery":11038,"ĠSout":11039,"Ġvariation":11040,"Ġracial":11041,"orient":11042,"Ġthrown":11043,"ĠBible":11044,"That":11045,"Ġaqu":11046,"Ġbears":11047,"aple":11048,"ĠProduct":11049,"Ġdrown":11050,"Ġconstitu":11051,"Ġlifetime":11052,"Ġemotion":11053,"ĠPoll":11054,"rift":11055,"Ġreceives":11056,"Ġexplaining":11057,"ulsion":11058,"Ġholiday":11059,"lights":11060,"ĠWoman":11061,"Ġshock":11062,"izz":11063,"Ġevident":11064,"ĠAmendment":11065,"Ġsettlements":11066,"ĠPicture":11067,"Ġadminister":11068,"ĠGreatest":11069,"Ġgarnered":11070,"uction":11071,"urred":11072,"ĠBuffalo":11073,"Ġknee":11074,"ĠRepublicans":11075,"Ġmud":11076,"ovak":11077,"ĠHarold":11078,"ĠPerformance":11079,"Ġboot":11080,"Ġrecruited":11081,"uters":11082,"thodox":11083,"ĠVers":11084,"ĠGameSp":11085,"ĠMetropolitan":11086,"05":11087,"oba":11088,"Ġashore":11089,"ĠCemetery":11090,"Ġcrashed":11091,"Ġspawn":11092,"ĠJerusalem":11093,"ĠConstantine":11094,"ĠâĤ¹":11095,"Ġow":11096,"Ġcommercially":11097,"Ġtickets":11098,"Ġtension":11099,"Ġlocally":11100,"winning":11101,"Ġweakening":11102,"wald":11103,"ĠGay":11104,"ĠActress":11105,"Ġ1861":11106,"Ġconsiderably":11107,"ĠAT":11108,"Ġresolved":11109,"rene":11110,"Ġassum":11111,"ĠCrus":11112,"celand":11113,"Ġoptions":11114,"Ġstretch":11115,"ĠHD":11116,"ellar":11117,"Ġinvolves":11118,"Ġbenefits":11119,"Ġburning":11120,"Ġtasked":11121,"ĠBurns":11122,"Ġescorted":11123,"Ġages":11124,"Ġsubstitute":11125,"Ġrescued":11126,"Ġdiscontin":11127,"vironment":11128,"ĠPant":11129,"Ġdetect":11130,"Ġgift":11131,"three":11132,"Ġseas":11133,"Ġhoused":11134,"changed":11135,"ĠGround":11136,"ĠTrade":11137,"ĠGrade":11138,"Ġproteins":11139,"ĠTyler":11140,"chen":11141,"Ġsword":11142,"Ġconcerning":11143,"ĠSerbian":11144,"mat":11145,"inz":11146,"ĠSultan":11147,"Ġtraditionally":11148,"Ġbatted":11149,"!,":11150,"Ġdual":11151,"ĠSug":11152,"cliff":11153,"Ġessentially":11154,"ĠTogether":11155,"Ġnaming":11156,"Ġhelps":11157,"ĠMontgomery":11158,"ĠPanzer":11159,"ÉĻ":11160,"ĠAber":11161,"ĠEth":11162,"Ġwarships":11163,"ĠIvan":11164,"ĠLiving":11165,"Ġexplore":11166,"Ġdeeply":11167,"Ġurg":11168,"ĠWisconsin":11169,"Ġcliff":11170,"Ġdisorder":11171,"Ġconflicts":11172,"ER":11173,"ĠStuart":11174,"Ġdoors":11175,"Ġcompetitions":11176,"ĠBoeing":11177,"ĠBaltic":11178,"07":11179,"ÃŃa":11180,"Ġpursued":11181,"ĠAttorney":11182,"ĠHalf":11183,"ho":11184,"Ġrib":11185,"Ġsupern":11186,"ĠRey":11187,"Ġdepicts":11188,"Ġeditions":11189,"erb":11190,"ĠSac":11191,"Ġjack":11192,"ĠNewton":11193,"Ġtravelling":11194,"ĠSchum":11195,"Ġcollections":11196,"Ġvolunteers":11197,"Ġimprisoned":11198,"world":11199,"Ġcook":11200,"leb":11201,"Ġforb":11202,"Ġrings":11203,"wright":11204,"Ġreass":11205,"ĠKate":11206,"Ġteammate":11207,"ĠLegisl":11208,"Ġlad":11209,"ĠAges":11210,"ĠTa":11211,"Ġconcurrent":11212,"Ġpursuit":11213,"Ġsacrif":11214,"ĠIndependence":11215,"ĠIndonesian":11216,"ĠPast":11217,"ĠLeaf":11218,"Ġsmoke":11219,"Ġeventual":11220,"Ġopposing":11221,"ĠHunter":11222,"Ġbeliefs":11223,"Ġnumbered":11224,"ĠMovie":11225,"ĠFitz":11226,"Ġscreenplay":11227,"Ġdying":11228,"Ġdimin":11229,"Ġpoliticians":11230,"Ġequally":11231,"ju":11232,"Ġtape":11233,"Ġdinner":11234,"Ġabroad":11235,"Ġmanif":11236,"Ġrevival":11237,"Ġharbour":11238,"ĠBrooks":11239,"core":11240,"sor":11241,"etween":11242,"Ġdealing":11243,"Ġuniversities":11244,"Ġurged":11245,"Ġcensus":11246,"ĠScots":11247,"Ġauthorized":11248,"rogen":11249,"Ġmedals":11250,"ĠIl":11251,"They":11252,"Ġpriest":11253,"isition":11254,"arest":11255,"ublin":11256,"them":11257,"Ġrenewed":11258,"gow":11259,"Ġgods":11260,"Ġborrow":11261,"Ġ<":11262,"ĠSay":11263,"inery":11264,"ĠCamb":11265,"chi":11266,"Ġunve":11267,"Ġenabled":11268,"ĠApollo":11269,"Ġcongress":11270,"ĠAthens":11271,"Just":11272,"ints":11273,"Ġdim":11274,"eps":11275,"ailing":11276,"regular":11277,"Ġparticipants":11278,"Ġelaborate":11279,"Ġrivals":11280,"actory":11281,"Ġguy":11282,"ĠBarnes":11283,"ĠJohann":11284,"ĠRepresentatives":11285,"Ġfert":11286,"Ġ71":11287,"Ġdrain":11288,"ĠAbu":11289,"Ġmixture":11290,"Ġchemistry":11291,"ĠRogers":11292,"ĠTerr":11293,"Ġconj":11294,"ĠSaturn":11295,"Ġtooth":11296,"Ġsuspected":11297,"MC":11298,"onation":11299,"ĠSid":11300,"Ġinterven":11301,"ĠZone":11302,"Ġlaps":11303,"Ġrushing":11304,"arded":11305,"ephew":11306,"Ġconsc":11307,"Ġassert":11308,"Ġpromise":11309,"hou":11310,"roe":11311,"amine":11312,"acking":11313,"ĠFlore":11314,"Ġpitcher":11315,"finals":11316,"Ġcable":11317,"child":11318,"Ġfavourite":11319,"Ġcattle":11320,"asp":11321,"Ġpink":11322,"icing":11323,"ĠHearts":11324,"icken":11325,"Ġcolours":11326,"Ġsharks":11327,"lete":11328,"ampton":11329,"ĠDays":11330,"Ġflex":11331,"Ġvillain":11332,"Ġhostile":11333,"Ġdecreased":11334,"ĠNature":11335,"Ġmanufacturing":11336,"pres":11337,"Ġstolen":11338,"ilda":11339,"ĠScar":11340,"Ġveteran":11341,"ĠAren":11342,"iffer":11343,"quer":11344,"iah":11345,"Ġcostume":11346,"ĠPatri":11347,"Ġcompositions":11348,"ridor":11349,"West":11350,"isan":11351,"Ġvig":11352,"anga":11353,"Ġinvaded":11354,"ĠBranch":11355,"rost":11356,"ĠWonder":11357,"Ġthereby":11358,"Ġ1894":11359,"ournament":11360,"erts":11361,"ĠRuth":11362,"ĠWes":11363,"Ġcaps":11364,"Ġsalv":11365,"Ġinhib":11366,"Ġstones":11367,"Ġapply":11368,"Ġbombardment":11369,"Ġtel":11370,"omes":11371,"Ġaccidentally":11372,"ĠConstantinople":11373,"WA":11374,"Ġmaps":11375,"Ġnut":11376,"ĠPoly":11377,"Ġhopes":11378,"David":11379,"ĠStill":11380,"Ġverte":11381,"Ġ99":11382,"Ġprofile":11383,"ĠHeavyweight":11384,"idia":11385,"ovic":11386,"rible":11387,"Ġwarned":11388,"Ġcapturing":11389,"Ġinherited":11390,"Ġgodd":11391,"ĠThr":11392,"uber":11393,"áº":11394,"ĠHope":11395,"Ġ1800":11396,"ĠComedy":11397,"ĠJoan":11398,"ĠChristians":11399,"Ġ1891":11400,"ĠAffairs":11401,"colm":11402,"Ġtornado":11403,"second":11404,"page":11405,"Î¿":11406,"orf":11407,"Ġho":11408,"Ġrains":11409,"Ġcelebration":11410,"ĠTurkey":11411,"Ġcomics":11412,"Ġempty":11413,"Ġconfirm":11414,"HS":11415,"alg":11416,"ulum":11417,"Ġprovisions":11418,"Ġlinks":11419,"ĠDanny":11420,"Ġhoping":11421,"Ġwonder":11422,"Ġpill":11423,"ĠBask":11424,"Ġorganisms":11425,"Ġinnoc":11426,"Can":11427,"ĠIceland":11428,"Ġanalog":11429,"ĠReport":11430,"Ġpossess":11431,"Ġlaboratory":11432,"Ġib":11433,"ĠMall":11434,"orted":11435,"Ġtissue":11436,"ĠNord":11437,"restrial":11438,"ouch":11439,"ĠSud":11440,"Ġnickname":11441,"auc":11442,"ĠWalt":11443,"agles":11444,"Ġprototype":11445,"Ġavo":11446,"However":11447,"artime":11448,"ĠThames":11449,"Ġbatteries":11450,"Ġeasier":11451,"Ġvariations":11452,"ĠLaboratory":11453,"ellers":11454,"oft":11455,"ĠTow":11456,"ĠPok":11457,"ptic":11458,"ĠNova":11459,"Ġgirlfriend":11460,"ĠPortugal":11461,"Ġ00":11462,"Ġsinking":11463,"ĠNewcastle":11464,"Ġsupports":11465,"Ġoccasional":11466,"ĠKyle":11467,"2012":11468,"Ġjuven":11469,"uil":11470,"ĠExecutive":11471,"Ġgolden":11472,"atsu":11473,"Ġpromoting":11474,"ĠChapel":11475,"Ġfra":11476,"ĠFighter":11477,"ĠJTWC":11478,"riel":11479,"former":11480,"ĠEvil":11481,"TS":11482,"cell":11483,"Ġfires":11484,"ĠHunt":11485,"Ġgrap":11486,"Ġhandle":11487,"Ġseparation":11488,"ĠMacArthur":11489,"hart":11490,"Ġprogressed":11491,"Ġthreats":11492,"Ġdocumented":11493,"mont":11494,"Ġsor":11495,"amics":11496,"ĠDraft":11497,"Ġtrapped":11498,"Ġpositively":11499,"Ġrestrictions":11500,"ĠPrest":11501,"ĠMarines":11502,"Ġremembered":11503,"ĠÐ":11504,"Ġlift":11505,"Ġavoided":11506,"ĠMS":11507,"ĠFil":11508,"Ġaccord":11509,"Ġguests":11510,"Ġ1892":11511,"ĠMeteorological":11512,"Ġtaste":11513,"oric":11514,"ĠSyn":11515,"ĠCentury":11516,"Ġ1889":11517,"Ġbiography":11518,"yan":11519,"ĠMeth":11520,"Ġgrandfather":11521,"etta":11522,"ĠSherman":11523,"atisf":11524,"ĠHad":11525,"ĠFern":11526,"ielder":11527,"ĠBaron":11528,"ĠRomney":11529,"Har":11530,"Ġparliamentary":11531,"list":11532,"itches":11533,"Ġdust":11534,"qual":11535,"Ġmetric":11536,"gett":11537,"Ġhandling":11538,"Ġlighter":11539,"Ġvital":11540,"ught":11541,"acht":11542,"Ġdeputy":11543,"Ġdefenders":11544,"Ġblend":11545,"ĠFull":11546,"ĠStars":11547,"2001":11548,"sa":11549,"ĠManagement":11550,"ĠRegional":11551,"Ġcustomers":11552,"Ġmurdered":11553,"Ġhorizont":11554,"ĠBears":11555,"oples":11556,"Ġscandal":11557,"Ġproduces":11558,"Ġvelocity":11559,"mans":11560,"ĠNeb":11561,"ĠStra":11562,"Ġnoticed":11563,"Ġcontracts":11564,"Ġevacuation":11565,"ĠBoulevard":11566,"hl":11567,"oom":11568,"Ġusage":11569,"emble":11570,"Ġbiological":11571,"pat":11572,"Ġpolitician":11573,"Ġinhab":11574,"Ġtrailer":11575,"osy":11576,"Ġbell":11577,"ĠToy":11578,"Ġchase":11579,"Ġyard":11580,"Ġlawsuit":11581,"nex":11582,"Ġconsumption":11583,"Ġvolcanic":11584,"ĠYouth":11585,"ĠâĢ¦":11586,"ĠOrchestra":11587,"Ġliver":11588,"Ġramp":11589,"ĠIns":11590,"lesh":11591,"ĠReagan":11592,"ĠCornwall":11593,"ĠGuild":11594,"ĠElectric":11595,"ĠTru":11596,"Ġrugby":11597,"Ġtrunk":11598,"ĠJudge":11599,"Pro":11600,"Ġeating":11601,"akh":11602,"Ġspeculation":11603,"racks":11604,"Ġlicense":11605,"Ġcam":11606,"ĠCer":11607,"ĠPul":11608,"ĠJoint":11609,"ĠInvest":11610,"Ġrelation":11611,"Ġmixing":11612,"oirs":11613,"lined":11614,"ĠCinem":11615,"Ġstyl":11616,"incinn":11617,"ĠMiles":11618,"ĠDuch":11619,"Ġspl":11620,"Ġrever":11621,"igger":11622,"ĠPas":11623,"osion":11624,"aneous":11625,"Ġdevelopments":11626,"Ġcathedral":11627,"ĠAthletic":11628,"Ġ96":11629,"Ġparticles":11630,"Ġengineers":11631,"ĠDublin":11632,"ĠEnvironment":11633,"Ġencounters":11634,"Ġdecrease":11635,"Ġanticipated":11636,"Ġwound":11637,"ĠSpider":11638,"ĠBright":11639,"Ġindustries":11640,"ĠJosÃ©":11641,"heimer":11642,"Ġdepicting":11643,"Ġpor":11644,"Ġmarking":11645,"great":11646,"Ġtherm":11647,"Ġcash":11648,"Ġundertaken":11649,"ĠProtestant":11650,"Ġcow":11651,"ĠSic":11652,"etary":11653,"inded":11654,"Ġformula":11655,"Ġdebris":11656,"ĠJustin":11657,"onnie":11658,"Ġchoir":11659,"ĠCena":11660,"ĠGon":11661,"Ġplates":11662,"Ġvicinity":11663,"Ġthunderstorm":11664,"Ġnose":11665,"estab":11666,"ĠIslamic":11667,"uin":11668,"Ġabb":11669,"Ġtouchdowns":11670,"ĠFIFA":11671,"Hg":11672,"Ġaccessible":11673,"ĠCharlotte":11674,"ĠVeg":11675,"ĠChester":11676,"Ġmechanism":11677,"entieth":11678,"ĠNATO":11679,"Ġprest":11680,"ĠEnergy":11681,"Ġchampionships":11682,"ĠSonic":11683,"Ġorange":11684,"ĠSean":11685,"Ġdozen":11686,"Ġvirtually":11687,"itol":11688,"olia":11689,"iga":11690,"Ġrandom":11691,"opic":11692,"amation":11693,"ĠEight":11694,"Ġproof":11695,"Ġepic":11696,"ĠLeonard":11697,"ĠÄĲ":11698,"ugs":11699,"ĠLeices":11700,"there":11701,"commun":11702,"Ġignored":11703,"lims":11704,"itime":11705,"Ġcontacted":11706,"Ġcu":11707,"Ġmounts":11708,"ĠFlow":11709,"ĠNancy":11710,"cedes":11711,"formed":11712,"Ġeastward":11713,"Ġconvicted":11714,"Ġinaugural":11715,"Because":11716,"had":11717,"ĠTitan":11718,"ĠAS":11719,"ĠPin":11720,"uka":11721,"Ġarose":11722,"Ġupcoming":11723,"Ġcommunist":11724,"Ġsuspension":11725,"Ġexhibit":11726,"06":11727,"assy":11728,"Ġconversation":11729,"Eng":11730,"fam":11731,"avi":11732,"ĠVoice":11733,"ĠTribune":11734,"song":11735,"Ġwake":11736,"Ġmammals":11737,"Ġcorporate":11738,"ĠSide":11739,"ocol":11740,"ribution":11741,"ĠStein":11742,"iminary":11743,"Ġdisappointed":11744,"ighting":11745,"Ġhumanity":11746,"ĠMagic":11747,"Ġfarmers":11748,"Ġferry":11749,"Ġmos":11750,"ĠMI":11751,"Ġindigenous":11752,"Ġportrait":11753,"ischer":11754,"Ġcollaborated":11755,"Ġhelicopter":11756,"Ġtube":11757,"Ġvoters":11758,"Ġ1885":11759,"hanced":11760,"ĠOur":11761,"raltar":11762,"ĠGlas":11763,"pin":11764,"ĠMind":11765,"2002":11766,"Ġterritorial":11767,"ĠCollection":11768,"ĠMicha":11769,"ĠBarbara":11770,"Ġaside":11771,"ĠPeng":11772,"ubble":11773,"ĠControl":11774,"ĠSerbia":11775,"quiry":11776,"Qu":11777,"Ġstern":11778,"ĠTed":11779,"avian":11780,"ĠThan":11781,"Ġfacil":11782,"ĠCode":11783,"ĠCanu":11784,"ĠBert":11785,"ortion":11786,"abric":11787,"Ġlasting":11788,"Ġfocuses":11789,"incinnati":11790,"iture":11791,"Ġtools":11792,"Ġoccurring":11793,"ĠErnest":11794,"ĠAgainst":11795,"Ġfron":11796,"ĠKit":11797,"Ġpeninsula":11798,"Ġcomplicated":11799,"ĠCareer":11800,"Ġconquest":11801,"Ġmit":11802,"Ġloud":11803,"Ġ1888":11804,"Ġsynthes":11805,"Ġlaugh":11806,"Ġprol":11807,"Ġfeathers":11808,"Ġ69":11809,"mel":11810,"ework":11811,"Ġpreserve":11812,"Ġ978":11813,"issioned":11814,"auge":11815,"Ġinfection":11816,"ĠContinental":11817,"ĠYugoslavia":11818,"ĠPedro":11819,"ĠMalta":11820,"front":11821,"Ġtracked":11822,"works":11823,"ĠLuft":11824,"ĠMix":11825,"Ġposts":11826,"ĠOthers":11827,"Ġcryst":11828,"ĠSpringfield":11829,"ĠFish":11830,"ipher":11831,"sson":11832,"Ġspeeds":11833,"ĠRoom":11834,"ĠLiberty":11835,"Ġexplanation":11836,"free":11837,"mother":11838,"Ġasserted":11839,"ennial":11840,"gans":11841,"ĠTyphoon":11842,"Ġgrows":11843,"ĠArchbishop":11844,"VP":11845,"elect":11846,"post":11847,"Ġretrie":11848,"Ġsituations":11849,"Ġremoving":11850,"Ġ1865":11851,"Ġpredominantly":11852,"ĠAction":11853,"ahl":11854,"Ġangry":11855,"Ġward":11856,"ĠChad":11857,"Ġsheep":11858,"Ġroadway":11859,"Ġcastles":11860,"Ġdeclar":11861,"ufficient":11862,"Ġlyrical":11863,"ĠNormandy":11864,"160":11865,"ds":11866,"first":11867,"asury":11868,"ĠCO":11869,"Ġelite":11870,"ĠAlberta":11871,"ĠArmenian":11872,"Ġlying":11873,"itchen":11874,"Ġcanceled":11875,"Ġcircular":11876,"Ġindependently":11877,"ĠBeth":11878,"Ġresid":11879,"autiful":11880,"Ġapolog":11881,"how":11882,"Ã´":11883,"enburg":11884,"Ġordinary":11885,"rels":11886,"Ġstrikes":11887,"Ġrelieved":11888,"ĠEnt":11889,"Ġfinals":11890,"Love":11891,"six":11892,"Ġgif":11893,"overy":11894,"Ġoffshore":11895,"Ġfunded":11896,"Ġhyper":11897,"DA":11898,"rÃ©":11899,"inted":11900,"Ġexclud":11901,"Ġpatient":11902,"ĠVegas":11903,"ĠAqu":11904,"Ġ\".":11905,"ulates":11906,"ĠUC":11907,"Ġboost":11908,"Ġexamination":11909,"ĠFriends":11910,"ubs":11911,"ĠVick":11912,"ĠComics":11913,"Ġbreeds":11914,"Ġsustain":11915,"gor":11916,"izard":11917,"ĠAlliance":11918,"Ġgenres":11919,"ĠAntar":11920,"Ġchrom":11921,"Ġclergy":11922,"Ġlocomotives":11923,"£o":11924,"ĠLords":11925,"Ġ81":11926,"Ġbowl":11927,"Ġintellectual":11928,"ĠSaf":11929,"ĠJe":11930,"Ġdislik":11931,"overty":11932,"Ġmarched":11933,"Ġaltitude":11934,"Ġbomber":11935,"Ġcompiled":11936,"Ġrecruit":11937,"Ġconstantly":11938,"instein":11939,"Ġantib":11940,"umberland":11941,"Ġpleased":11942,"William":11943,"ĠCincinnati":11944,"Ġarena":11945,"Ġphoto":11946,"eness":11947,"ĠMaine":11948,"opy":11949,"Ġclosure":11950,"ĠGibraltar":11951,"ĠPete":11952,"ĠHas":11953,"ĠTraff":11954,"ĠVilla":11955,"ĠPlace":11956,"Ġ1864":11957,"ĠKenneth":11958,"Ġdiamond":11959,"Ġpier":11960,"eta":11961,"Ġfold":11962,"imony":11963,"ĠFace":11964,"ĠLower":11965,"cor":11966,"Ġregulations":11967,"ĠRef":11968,"ĠShield":11969,"Ġknows":11970,"Ġprosper":11971,"Ġrendered":11972,"ĠChamberlain":11973,"making":11974,"encer":11975,"Ġviewing":11976,"Ġsuggestion":11977,"Ġstim":11978,"Ġeducated":11979,"Ġtimber":11980,"northwest":11981,"acular":11982,"ishn":11983,"ĠBark":11984,"aba":11985,"ĠShin":11986,"DI":11987,"Ġlayers":11988,"zes":11989,"itional":11990,"Ġthrowing":11991,"ĠÏ":11992,"alin":11993,"ĠTang":11994,"ĠSaw":11995,"ĠChair":11996,"atty":11997,"Ġlacking":11998,"Ġsweet":11999,"ĠAfghanistan":12000,"04":12001,"GM":12002,"leted":12003,"ĠCand":12004,"lett":12005,"ĠMetro":12006,"ĠTechnology":12007,"Or":12008,"Ġune":12009,"ĠLev":12010,"Ġ86":12011,"ĠBrowns":12012,"Ġattraction":12013,"ĠBulgar":12014,"Ġvarying":12015,"Ġinducted":12016,"Ġpig":12017,"igation":12018,"Ġleaf":12019,"ĠXX":12020,"Ġwitnesses":12021,"ĠSection":12022,"omon":12023,"Ġcelebrate":12024,"ĠBradley":12025,"Ġillustrated":12026,"Ġfungus":12027,"Ġfier":12028,"Ġscar":12029,"Ġblamed":12030,"Ġdisappeared":12031,"ĠTwitter":12032,"Ġinfer":12033,"ĠTournament":12034,"Ġreporter":12035,"ĠMuslims":12036,"eda":12037,"Ġadmir":12038,"Ġprofit":12039,"ĠIsaac":12040,"uce":12041,"ĠTaiwan":12042,"ĠTir":12043,"ĠCase":12044,"Ġencom":12045,"Ġreporting":12046,"Ġnevertheless":12047,"ĠKrist":12048,"usters":12049,"ĠShah":12050,"Ġsubmarines":12051,"Ġaest":12052,"Ġuser":12053,"gÃ©":12054,"attack":12055,"Ġretreated":12056,"ĠOrton":12057,"ĠParks":12058,"Ġfortifications":12059,"ĠinHg":12060,"Ġatop":12061,"Ġ79":12062,"Ġexpanding":12063,"ĠFran":12064,"ubbard":12065,"ĠOrganization":12066,"alia":12067,"Ġstored":12068,"istant":12069,"Ġflour":12070,"ĠReed":12071,"intin":12072,"icles":12073,"ĠWithout":12074,"ĠMarshal":12075,"di":12076,"employ":12077,"esty":12078,"Ġfaculty":12079,"Ġparking":12080,"Ġabsorbed":12081,"Ġty":12082,"ĠWaters":12083,"Ġperc":12084,"Ġentert":12085,"Ġkiller":12086,"Ġconfident":12087,"ĠVIII":12088,"ĠGates":12089,"oves":12090,"Ġsubmer":12091,"Ġbrilliant":12092,"Ġpublicity":12093,"ĠCyclone":12094,"Ġreleasing":12095,"Ġarmoured":12096,"Ġholes":12097,"Ġrealistic":12098,"ĠBrooklyn":12099,"lu":12100,"Ġhence":12101,"ĠShiva":12102,"Rec":12103,"ĠERA":12104,"Ġcompanion":12105,"ĠPrinceton":12106,"Ġshelter":12107,"Ġfossils":12108,"ĠTigers":12109,"Ġexile":12110,"Ġdesper":12111,"Ġ1862":12112,"hero":12113,"edge":12114,"ĠTerm":12115,"Ġfocusing":12116,"Ġuniversal":12117,"ĠRevolutionary":12118,"Ġresignation":12119,"Ġcondemned":12120,"iki":12121,"Ġdetected":12122,"Ġromance":12123,"ĠCanucks":12124,"net":12125,"ĠMaced":12126,"Ġremote":12127,"Ġblast":12128,"Ġverses":12129,"ĠSlav":12130,"110":12131,"ËĲ":12132,"onso":12133,"Ġ92":12134,"ettes":12135,"vol":12136,"ĠUk":12137,"Ġmentions":12138,"Ġmask":12139,"ĠLeeds":12140,"Ġrebounds":12141,"ĠSchumacher":12142,"ogg":12143,"ĠShep":12144,"ĠPhillies":12145,"Ġdisbanded":12146,"RS":12147,"Ġfract":12148,"ĠTests":12149,"ĠDud":12150,"Ġregiments":12151,"Ġstudios":12152,"Ġimpressive":12153,"2013":12154,"Ġcruise":12155,"auded":12156,"Ġpreceding":12157,"Ġsponsored":12158,"Ġconspiracy":12159,"ĠJNA":12160,"aku":12161,"Ġconvince":12162,"Ġtorpedoes":12163,"Ġstability":12164,"ĠRus":12165,"ĠDJ":12166,"raham":12167,"Ã¶r":12168,"Ġthorough":12169,"aton":12170,"Ġflown":12171,"LA":12172,"ĠSweet":12173,"ĠCort":12174,"Ġtelephone":12175,"bus":12176,"esh":12177,"Ġbearing":12178,"ĠEddie":12179,"Ġsentiment":12180,"ĠMalcolm":12181,"Ġeagle":12182,"olan":12183,"ĠGlee":12184,"ishops":12185,"actor":12186,"Ġconcepts":12187,"Ġcorresponding":12188,"Ġasc":12189,"ĠFreedom":12190,"Ġhybrid":12191,"Geor":12192,"ĠRush":12193,"agi":12194,"ĠEld":12195,"Ġ84":12196,"ĠBCE":12197,"Ġswept":12198,"ĠWagner":12199,"gener":12200,"girl":12201,"garian":12202,"new":12203,"ido":12204,"ĠSmack":12205,"Ġinsurance":12206,"Ġmachines":12207,"Mal":12208,"ĠOscar":12209,"abad":12210,"Ġroster":12211,"Ġpatri":12212,"Ġtourist":12213,"ĠConservative":12214,"Ġtent":12215,"Ġfed":12216,"Ġnephew":12217,"alysis":12218,"ĠOpera":12219,"bie":12220,"hor":12221,"Ġlung":12222,"umi":12223,"Ġbutter":12224,"ĠGregory":12225,"only":12226,"Ġdiversity":12227,"ewise":12228,"Ġconfused":12229,"Ġcreature":12230,"Ġsolely":12231,"isode":12232,"Ġannex":12233,"Ġirregular":12234,"Michael":12235,"Ġmild":12236,"ĠRear":12237,"Ġjersey":12238,"ampa":12239,"ĠWestminster":12240,"tz":12241,"ĠMorning":12242,"ĠTommy":12243,"Ġsteadily":12244,"ĠFriedrich":12245,"cat":12246,"ĠAustro":12247,"Ġdirecting":12248,"Ġprompting":12249,"atar":12250,"Ġnoise":12251,"ĠIsle":12252,"Ġmessages":12253,"Her":12254,"unge":12255,"Ġenh":12256,"Ġmyself":12257,"ĠPokÃ©":12258,"nda":12259,"Ġfault":12260,"Ġbapt":12261,"ĠEdmund":12262,"Ġpositioned":12263,"Ġbattlefield":12264,"Ġfavored":12265,"Ġtargeted":12266,"Ġsin":12267,"Ġsulf":12268,"ĠNation":12269,"actic":12270,"Ġscholarship":12271,"HC":12272,"Mr":12273,"omical":12274,"geant":12275,"ĠBrand":12276,"ĠMadison":12277,"election":12278,"Ġworse":12279,"Ġlover":12280,"ĠMann":12281,"Ġenorm":12282,"Ġmagnetic":12283,"imensional":12284,"vor":12285,"zed":12286,"Ġwartime":12287,"Ġcalculated":12288,"sub":12289,"ĠLud":12290,"Ġagencies":12291,"Ġtrio":12292,"Ġagrees":12293,"Ġspacecraft":12294,"Ġmonastery":12295,"BO":12296,"language":12297,"wind":12298,"stop":12299,"ĠBurg":12300,"rians":12301,"Ġ1840":12302,"Ġconnects":12303,"Ġgusts":12304,"mm":12305,"ĠCrow":12306,"Ġdrunk":12307,"Ġacclaimed":12308,"á»ĩ":12309,"120":12310,"ĠHull":12311,"anka":12312,"ĠStudies":12313,"ĠBurke":12314,"Ġinning":12315,"opard":12316,"Ġopined":12317,"Ġsav":12318,"Ġcotton":12319,"ĠFuture":12320,"izers":12321,"Ġrefuses":12322,"Ġoxid":12323,"Ġreconstruction":12324,"La":12325,"Ġ1000":12326,"Ġrice":12327,"Ġdistinction":12328,"iors":12329,"Ġgear":12330,"ĠTheater":12331,"ĠPay":12332,"ĠBarcel":12333,"Ġsugar":12334,"ĠCoal":12335,"ĠMcKinley":12336,"ĠCany":12337,"Ġexterior":12338,"Ġguards":12339,"Ãł":12340,"Ġtune":12341,"Ġcemetery":12342,"istical":12343,"ĠVo":12344,"Ġscreens":12345,"ĠAltern":12346,"Ġobst":12347,"aults":12348,"Ġtroop":12349,"Ġballs":12350,"Ġtruly":12351,"reeks":12352,"Ġmeasuring":12353,"Ġclouds":12354,"arus":12355,"ĠHok":12356,"Ġincidents":12357,"ĠMontana":12358,"Ġwalked":12359,"inge":12360,"Ġjew":12361,"Ġchallenging":12362,"ĠTerritory":12363,"Brit":12364,"ĠHood":12365,"rium":12366,"rises":12367,"Ġmotif":12368,"ĠHolland":12369,"Ġfundamental":12370,"Ġwalks":12371,"Ġelevated":12372,"Gr":12373,"lake":12374,"enh":12375,"Ġhosp":12376,"ĠSquad":12377,"ĠRan":12378,"Ġthanks":12379,"Ġconfig":12380,"Ġvenues":12381,"Ġconsequence":12382,"Ġconducting":12383,"dam":12384,"Ġtheaters":12385,"Ġkilometers":12386,"sur":12387,"chw":12388,"ĠDin":12389,"Ġarguments":12390,"Ġdropping":12391,"Ġhide":12392,"ĠTheodore":12393,"Ġjudicial":12394,"Ġcommitment":12395,"Ġaccomplished":12396,"Ġcomplimented":12397,"ĠDennis":12398,"Ġcurve":12399,"Ġceremonies":12400,"ĠCardinals":12401,"ĠBasketball":12402,"ĠMichaels":12403,"ighed":12404,"Ġrouting":12405,"Ġhistorically":12406,"Ġcreatures":12407,"Ġintend":12408,"Ġlakes":12409,"imer":12410,"Ġwhatever":12411,"Ġwinners":12412,"ĠBeh":12413,"ĠGlou":12414,"ĠFifth":12415,"ĠRobin":12416,"Me":12417,"Ä«":12418,"Ġfo":12419,"Ġbore":12420,"ĠPel":12421,"Ġquoted":12422,"Ġrotation":12423,"Ġpeoples":12424,"Ġvaries":12425,"Ġprogressive":12426,"Ġradius":12427,"Ġrevenge":12428,"itars":12429,"Ġrook":12430,"Ġdecisive":12431,"ĠEnix":12432,"roduction":12433,"Ġterminal":12434,"alymp":12435,"ĠAngelou":12436,"ĠAncient":12437,"Ear":12438,"Ġwrap":12439,"Ġmansion":12440,"ĠBour":12441,"ĠNas":12442,"Ġremake":12443,"Ġcontribute":12444,"Ġpreparations":12445,"elin":12446,"Ġonwards":12447,"Ġconced":12448,"Ġscout":12449,"Ġextends":12450,"ĠOrd":12451,"Ġdemographic":12452,"ĠParkway":12453,"ĠMonth":12454,"ĠRound":12455,"Ġpresents":12456,"Ġorganic":12457,"ĠMetac":12458,"Ġtelesc":12459,"herent":12460,"Ġpseud":12461,"ĠMembers":12462,"Ġrecre":12463,"Ġindirect":12464,"ĠMusical":12465,"Ġrebel":12466,"Ġparticipating":12467,"Ġ1863":12468,"Ġborough":12469,"Ġconvey":12470,"Ġsouthwestern":12471,"ĠHistorical":12472,"arthy":12473,"ede":12474,"ĠCS":12475,"Ġkids":12476,"ashire":12477,"Ġswing":12478,"gary":12479,"ĠBerm":12480,"ĠWatch":12481,"ĠKel":12482,"Ġspots":12483,"ĠSciences":12484,"Ġimposed":12485,"ĠSolar":12486,"ĠDenver":12487,"Ġprospect":12488,"ĠGlasgow":12489,"Ġmad":12490,"oub":12491,"ĠCox":12492,"ĠYard":12493,"Ġachievements":12494,"Ġinitiative":12495,"ĠLeo":12496,"Ġlogo":12497,"Ġweakness":12498,"Ġinstructions":12499,"olars":12500,"Ġoutcome":12501,"annels":12502,"Ġbowled":12503,"ĠNad":12504,"ĠHeb":12505,"Ġposter":12506,"Ġheavier":12507,"ĠOlivia":12508,"hell":12509,"ĠLS":12510,"Ġministers":12511,"appa":12512,"ĠPierre":12513,"Far":12514,"ĠBorn":12515,"Ġspell":12516,"Ġdecay":12517,"Ġairborne":12518,"ĠHerbert":12519,"trans":12520,"Ġyd":12521,"Ġtriumph":12522,"alties":12523,"ĠDerby":12524,"ĠSmackDown":12525,"Car":12526,"Ġintermediate":12527,"official":12528,"mitting":12529,"ironments":12530,"Ġproperly":12531,"Ġdarker":12532,"Ġdeposits":12533,"Ġcouldn":12534,"Ġ1887":12535,"Ġconsideration":12536,"Black":12537,"ĠNevada":12538,"Big":12539,"emporary":12540,"rews":12541,"ĠHelen":12542,"IC":12543,"inated":12544,"Ġpaying":12545,"ĠKaz":12546,"ĠIsab":12547,"Ġtourists":12548,"ĠâĻ":12549,"ĠMercury":12550,"Ġritual":12551,"Ġtap":12552,"Ġpenn":12553,"guard":12554,"Ġmelod":12555,"Ġrevolutionary":12556,"Ġvegetation":12557,"ht":12558,"Ġecho":12559,"Ġcha":12560,"ĠAM":12561,"ĠDod":12562,"agic":12563,"ĠUnd":12564,"Ġunh":12565,"oints":12566,"ĠMarl":12567,"Ġcoaches":12568,"Ġdepiction":12569,"Ġtransmission":12570,"Ġphysically":12571,"ĠVenice":12572,"asia":12573,"Ġbreast":12574,"atorial":12575,"Ġestimate":12576,"ĠMyster":12577,"Ġexercises":12578,"enberg":12579,"osc":12580,"ĠCarlos":12581,"ĠJulian":12582,"Ġspite":12583,"Ġ89":12584,"ĠParalymp":12585,"Ġlesser":12586,"Ġtaxon":12587,"03":12588,"ele":12589,"Ġ93":12590,"Ġcontinental":12591,"Ġ1886":12592,"ĠAlbany":12593,"Ġsubtropical":12594,"Ġautobiography":12595,"Ġencompass":12596,"ĠNam":12597,"riages":12598,"Ġcritically":12599,"1990":12600,"Ġborders":12601,"ĠOil":12602,"antastic":12603,"Ġbrings":12604,"Ġ94":12605,"Ġenvironments":12606,"ĠOttawa":12607,"ĠCEO":12608,"Ġquarters":12609,"Ġmilk":12610,"ĠIsles":12611,"Ġflower":12612,"Ġdelegates":12613,"arians":12614,"Ġisn":12615,"ĠJake":12616,"Ġhonors":12617,"ĠSalv":12618,"ĠNASA":12619,"ĠJamaica":12620,"range":12621,"Ġfru":12622,"Ġmasc":12623,"ĠSoph":12624,"ĠRivers":12625,"Ġnortheastern":12626,"Ġwidth":12627,"Ġachievement":12628,"Ġjournalists":12629,"Ġsailors":12630,"Br":12631,"Brien":12632,"cock":12633,"ĠCond":12634,"ĠLamb":12635,"Ġpermanently":12636,"Ġwitnessed":12637,"Ġassassination":12638,"Ġdeliberately":12639,"Ġamphib":12640,"ĠTu":12641,"olo":12642,"ĠPoe":12643,"ĠKil":12644,"ĠKill":12645,"Ġperformers":12646,"Ġpunishment":12647,"Ġcosm":12648,"Ġharsh":12649,"Ġlib":12650,"ĠKid":12651,"ĠAlam":12652,"ĠComposition":12653,"Ġupdated":12654,"asi":12655,"Ġmate":12656,"Ġhurt":12657,"iang":12658,"Ġprince":12659,"ĠSprings":12660,"Ġtransformed":12661,"Ġmoist":12662,"Ġdoctrine":12663,"ĠBarcelona":12664,"Ġdispatched":12665,"Ab":12666,"Ġelectro":12667,"Ġorchestral":12668,"01":12669,"cht":12670,"ĠWhere":12671,"usty":12672,"Ġdisabled":12673,"Ġreminis":12674,"Ġmarg":12675,"Ġsummon":12676,"heads":12677,"ĠLancashire":12678,"Ġbin":12679,"Ġcontrad":12680,"stown":12681,"ĠBes":12682,"ĠHubbard":12683,"ĠNass":12684,"Ġargue":12685,"ĠOperations":12686,"ĠRonald":12687,"Ġinput":12688,"ĠTas":12689,"irk":12690,"ĠPS":12691,"ĠChet":12692,"Char":12693,"Ġintegrated":12694,"ĠSri":12695,"Ġ350":12696,"ĠPolitical":12697,"pit":12698,"isations":12699,"ointing":12700,"ĠChurchill":12701,"Ġexamined":12702,"Ġvariable":12703,"Ġbelonged":12704,"Ġbelonging":12705,"ĠCanyon":12706,"Ġascend":12707,"ĠFoster":12708,"ijing":12709,"Ġhypothesis":12710,"ĠNathan":12711,"Ġpref":12712,"Ġcomplement":12713,"Ġmanaging":12714,"Ġ1884":12715,"ĠAdventure":12716,"Ġeligible":12717,"ĠBulgarian":12718,"Ġreluctant":12719,"GB":12720,"Ġdock":12721,"Ġreh":12722,"ĠBased":12723,"ĠDaw":12724,"ĠEsc":12725,"ĠSteam":12726,"ĠMilan":12727,"Ġarchaeological":12728,"Ġroutine":12729,"Tunes":12730,"Ġgentle":12731,"Ġpreventing":12732,"ĠArena":12733,"Pa":12734,"eches":12735,"immer":12736,"Ġstaged":12737,"ĠGang":12738,"Ġunanim":12739,"Ġdamaging":12740,"ĠCalgary":12741,"mercial":12742,"Ġexecutives":12743,"James":12744,"ĠTintin":12745,"Ġswitched":12746,"Ġpsychiat":12747,"Ġdistinguish":12748,"Ġmunicipal":12749,"omys":12750,"Ġgates":12751,"ulk":12752,"Ġconfer":12753,"aston":12754,"Ġhomosexual":12755,"ĠRichardson":12756,"Ġunsuccessfully":12757,"armed":12758,"ĠRosen":12759,"Ġrounded":12760,"1999":12761,"Ġcoaching":12762,"Ġmechanics":12763,"Under":12764,"odied":12765,"Ġfinest":12766,"Ġeighteen":12767,"Ġdisputed":12768,"ĠBrah":12769,"sing":12770,"zig":12771,"Ġghost":12772,"Ġactively":12773,"Ġepit":12774,"Ġpossessed":12775,"ĠXI":12776,"ĠPercy":12777,"Ġobjectives":12778,"Ġprocedure":12779,"Ġphenomenon":12780,"team":12781,"ĠVerm":12782,"Ġinternationally":12783,"Ġrevealing":12784,"ĠMercedes":12785,"Ġboyfriend":12786,"Ġphilosopher":12787,"Ġfrigate":12788,"ser":12789,"Ġformations":12790,"Ġdirections":12791,"Ġloose":12792,"ĠConserv":12793,"RC":12794,"uke":12795,"ĠSor":12796,"Ġenlar":12797,"Ġencourage":12798,"Ġexpectations":12799,"kil":12800,"opol":12801,"Ġseal":12802,"Ġlandmark":12803,"Ġlatest":12804,"ĠPokÃ©mon":12805,"Ġreop":12806,"ĠMi":12807,"Ġwhales":12808,"ĠWis":12809,"rossing":12810,"Ġadvocated":12811,"Ġscientist":12812,"has":12813,"Ġhoney":12814,"istocr":12815,"Ġleagues":12816,"Ġlengths":12817,"Ġpropaganda":12818,"bach":12819,"ĠDelta":12820,"ĠWinn":12821,"ĠCaes":12822,"Ġventure":12823,"inqu":12824,"ĠHus":12825,"ĠUnit":12826,"ampire":12827,"ĠArc":12828,"ierra":12829,"Ġexploration":12830,"Ġdiscussing":12831,"Ġtribut":12832,"ĠMiddles":12833,"ĠCou":12834,"ĠAny":12835,"Ġpresidency":12836,"erness":12837,"ĠCommons":12838,"ĠGrove":12839,"Ġoptim":12840,"ĠGothic":12841,"Ġaided":12842,"ĠMak":12843,"ĠHerm":12844,"ĠEisen":12845,"Ġcomprising":12846,"angered":12847,"Ġallied":12848,"ĠNorthwest":12849,"Ġsearching":12850,"Ã¨re":12851,"ĠCeltic":12852,"handed":12853,"waffe":12854,"Ġov":12855,"ĠAP":12856,"ĠSeas":12857,"Ġauton":12858,"Ġrequirement":12859,"ĠCircle":12860,"odium":12861,"ĠFilming":12862,"Ġmarsh":12863,"Ġgest":12864,"Ġshipped":12865,"arma":12866,"aptist":12867,"ĠMult":12868,"ĠMills":12869,"ums":12870,"Ġmetals":12871,"Gu":12872,"Ġdesired":12873,"ĠExpl":12874,"Ġintroduce":12875,"ĠFerdin":12876,"Ġdependent":12877,"alid":12878,"stable":12879,"Ġ125":12880,"Ġcurved":12881,"Ġcontributing":12882,"Ġcomprised":12883,"Ġtasks":12884,"Ġliv":12885,"Ġgrid":12886,"Ġ105":12887,"Ġlistening":12888,"ĠPalestine":12889,"RO":12890,"length":12891,"Ġtom":12892,"avil":12893,"Ġintr":12894,"Ġaccus":12895,"Ġestates":12896,"Ġtemples":12897,"Ġopinions":12898,"sic":12899,"ĠFly":12900,"Ġspeculated":12901,"Ġemerging":12902,"Ġabundant":12903,"Ġda":12904,"utely":12905,"nery":12906,"ĠDrake":12907,"Ġblockade":12908,"Ġicon":12909,"Ġrefugees":12910,"Ġsubmerged":12911,"AD":12912,"Ġpoverty":12913,"Ġconvert":12914,"ĠWeather":12915,"Ġgenes":12916,"Ġsilent":12917,"Ġpayment":12918,"ĠRodrig":12919,"ĠBrid":12920,"Ġceiling":12921,"Ġundertook":12922,"nut":12923,"ilogy":12924,"iden":12925,"Ġadjust":12926,"ĠHenderson":12927,"Ġmolecular":12928,"Ġimmigrants":12929,"Dr":12930,"ĠSad":12931,"Ġpartners":12932,"hentic":12933,"ĠBlair":12934,"Ġimproving":12935,"Ġnavigation":12936,"jud":12937,"oni":12938,"Ġroot":12939,"Ġenhanced":12940,"Ġguitars":12941,"ĠFloyd":12942,"Ġ1876":12943,"Ġ1877":12944,"ĠRaymond":12945,"Ġresemble":12946,"Ġturbines":12947,"Ġmysterious":12948,"Ġstaying":12949,"ĠMarqu":12950,"Ġaveraged":12951,"Ġhabitats":12952,"ĠIb":12953,"oren":12954,"pring":12955,"headed":12956,"Ġassociate":12957,"ĠRoche":12958,"Ġcubic":12959,"rehensive":12960,"Jack":12961,"ĠBud":12962,"ĠPack":12963,"Ġassets":12964,"Ġfinance":12965,"ĠCarr":12966,"Ġexplored":12967,"Ġconsistently":12968,"ĠHeadquarters":12969,"rection":12970,"unar":12971,"Ġrider":12972,"archy":12973,"ĠRomanian":12974,"Ġcomposers":12975,"ĠDuncan":12976,"Ġnaturally":12977,"stad":12978,"ĠChang":12979,"Ġcomplaints":12980,"ED":12981,"elia":12982,"ĠExped":12983,"Ġzero":12984,"suing":12985,"Ġnetworks":12986,"Ġfragments":12987,"Ġoct":12988,"Ġdive":12989,"Ġversus":12990,"Ġcoastline":12991,"ĠFilms":12992,"structed":12993,"Ġshaped":12994,"ĠAnat":12995,"Ġcanon":12996,"Ġacceptance":12997,"Ġpriority":12998,"ĠMillennium":12999,"iggins":13000,"ĠPick":13001,"Ġensuing":13002,"Ġ1830":13003,"ĠManuel":13004,"02":13005,"Ãª":13006,"igo":13007,"Ġstair":13008,"Ġants":13009,"ĠJose":13010,"Ġchannels":13011,"Ġcentered":13012,"Ġgenera":13013,"marine":13014,"otypes":13015,"ĠLeicester":13016,"%)":13017,"comb":13018,"ographed":13019,"ĠGuadal":13020,"ĠTelegraph":13021,"Ġprivile":13022,"Ġconsequences":13023,"icus":13024,"ountain":13025,"Ġfaction":13026,"Ġsummar":13027,"Ġphotos":13028,"Ġtough":13029,"Not":13030,"ĠRif":13031,"bery":13032,"Ġcameo":13033,"Ġsuffer":13034,"ĠRegion":13035,"boats":13036,"Ġseeds":13037,"Ġreson":13038,"otto":13039,"ĠAub":13040,"ĠVoy":13041,"Ġcarved":13042,"ĠAdela":13043,"Ġcontempor":13044,"ĠMasters":13045,"olith":13046,"issa":13047,"Ġconsensus":13048,"Ġincom":13049,"ĠColomb":13050,"Ġhomeless":13051,"Ġdissolved":13052,"ĠMetacritic":13053,"ĠColin":13054,"ĠPersonnel":13055,"rang":13056,"Ġoutstanding":13057,"Ġunderwater":13058,"Ġsignals":13059,"Ġdiscour":13060,"Ġsingers":13061,"Ġcompromise":13062,"bian":13063,"ĠRaid":13064,"eward":13065,"ĠVic":13066,"Ġmonster":13067,"Ġeleph":13068,"ĠDesert":13069,"Ġsymbols":13070,"ĠiTunes":13071,"Ġreserves":13072,"Ġlemurs":13073,"Ġbench":13074,"Ġunveiled":13075,"Ġpercussion":13076,"brown":13077,"Ġmbar":13078,"ĠTree":13079,"ĠPine":13080,"ĠNak":13081,"ĠKin":13082,"Ġadequ":13083,"ĠBeijing":13084,"ĠComputer":13085,"ĠDeputy":13086,"Ġeruption":13087,"ĠDiamond":13088,"Ġhaz":13089,"ĠSever":13090,"Ġnice":13091,"istence":13092,"ĠDevil":13093,"ovsky":13094,"Ġintact":13095,"Ġvariant":13096,"Ġqualities":13097,"Ġfears":13098,"ĠCulture":13099,"Ġrushed":13100,"Ġplayable":13101,"Ġrelied":13102,"Ġdefenses":13103,"Ġcorruption":13104,"Ġsurpassed":13105,"ĠMut":13106,"Ġlandings":13107,"Ġinteractions":13108,"ittle":13109,"ĠInsp":13110,"offs":13111,"Ġlengthy":13112,"Ġbattlecruisers":13113,"Ġcrucial":13114,"ĠDudley":13115,"meter":13116,"Ġbars":13117,"Ġwhale":13118,"ĠEmma":13119,"Ġspectators":13120,"ĠTalk":13121,"Ġrational":13122,"Ġrepublic":13123,"Ġeldest":13124,"ĠMega":13125,"Ġteachers":13126,"ĠOcc":13127,"Ġ98":13128,"Ġdoctors":13129,"ĠLuftwaffe":13130,"ĠLuther":13131,"auna":13132,"Ġimprov":13133,"Ġmystery":13134,"antle":13135,"ĠSee":13136,"ĠFrances":13137,"Ġthreatening":13138,"Ġineff":13139,"ĠTucker":13140,"Ġcomparing":13141,"assed":13142,"ĠMcN":13143,"aurus":13144,"Ġambassador":13145,"ordinary":13146,"oline":13147,"Ġweighed":13148,"Ġgrossed":13149,"ĠCrawford":13150,"some":13151,"ĠVlad":13152,"ogs":13153,"Ġsongwriting":13154,"ĠTrinity":13155,"Ġcostumes":13156,"ĠAgric":13157,"Hungarian":13158,"Ġnervous":13159,"Ġsib":13160,"atem":13161,"igrated":13162,"ema":13163,"thlete":13164,"ĠSeb":13165,"Ġamid":13166,"monton":13167,"ĠBerg":13168,"Ġemotions":13169,"Ġhonorary":13170,"Ġloyalty":13171,"Ġassessment":13172,"HA":13173,"ashing":13174,"iti":13175,"ĠFa":13176,"Ġprocessing":13177,"Ġmanufactured":13178,"Ġproclaimed":13179,"Ġclip":13180,"ĠNewman":13181,"Ġrunner":13182,"ĠFlames":13183,"Ġsymph":13184,"Ġprinting":13185,"Ġtensions":13186,"Ġcave":13187,"Ġsear":13188,"neath":13189,"Ġkilog":13190,"ĠBermuda":13191,"ded":13192,"Ġfabric":13193,"roximately":13194,"Ġ1875":13195,"Ġinstructed":13196,"ĠCabinet":13197,"ĠCrystal":13198,"ĠPly":13199,"istance":13200,"Ġrocket":13201,"ĠSoviets":13202,"Ġbacteria":13203,"ĠDakota":13204,"ĠTol":13205,"Ġdealt":13206,"Ġinterf":13207,"Ġ97":13208,"Ġappealed":13209,"Ġdisappoint":13210,"Ġdiseases":13211,"Ġinstrumentation":13212,"Ġpatrols":13213,"edar":13214,"ĠFood":13215,"ĠLP":13216,"ĠSpeed":13217,"ĠChem":13218,"Ġessay":13219,"Ġawareness":13220,"ĠWolver":13221,"Ġhurricanes":13222,"ĠMail":13223,"iri":13224,"Ġrally":13225,"Ġcollecting":13226,"Ġmillions":13227,"oriented":13228,"odon":13229,"ĠKy":13230,"Ġaristocr":13231,"Ġbatsman":13232,"Ġfraud":13233,"lov":13234,"rez":13235,"ĠMile":13236,"ĠBody":13237,"Ġtrips":13238,"Ġrevived":13239,"fast":13240,"py":13241,"ĠAL":13242,"urse":13243,"Ġstom":13244,"ĠFun":13245,"Though":13246,"ĠPlanet":13247,"ĠWatson":13248,"uits":13249,"utonium":13250,"endar":13251,"Ġrelating":13252,"Ġ1881":13253,"Ġowing":13254,"Ġhier":13255,"ĠPunk":13256,"ĠFur":13257,"ologically":13258,"ĠTruman":13259,"umping":13260,"Ġpsychological":13261,"Ġreferee":13262,"Ġconsciousness":13263,"Ġflesh":13264,"ulu":13265,"Ġallegations":13266,"Ġenrolled":13267,"ĠBea":13268,"ĠMcCarthy":13269,"ĠMethod":13270,"Ke":13271,"tra":13272,"ĠClif":13273,"ĠStandard":13274,"UC":13275,"Ġwishes":13276,"isch":13277,"lend":13278,"ĠRBI":13279,"ĠDj":13280,"Ġdeals":13281,"ĠEuro":13282,"Ġintersections":13283,"Out":13284,"Ġproxim":13285,"omething":13286,"Ġ1883":13287,"Ġwoods":13288,"ĠVeronica":13289,"ĠGibson":13290,"Ġoverwhelming":13291,"ĠExpedition":13292,"Ġsubordin":13293,"Ġrepet":13294,"Ġ109":13295,"Ġinvolve":13296,"ĠAngle":13297,"Ġreader":13298,"Every":13299,"ĠHass":13300,"ichi":13301,"Ġchlor":13302,"Ġmanages":13303,"Ġmetall":13304,"Ġposthum":13305,"Ġexhibited":13306,"Ġetc":13307,"Ġquantities":13308,"Ġdisliked":13309,"raid":13310,"Ġjaw":13311,"Ġsheet":13312,"...\"":13313,"Ġadds":13314,"ĠMonroe":13315,"asaki":13316,"Ġvocalist":13317,"Ġlifted":13318,"rolling":13319,"ĠProfessional":13320,"Ġmathematics":13321,"ripp":13322,"Ġtelev":13323,"Ġ83":13324,"ancock":13325,"ĠMcD":13326,"Ġgoddess":13327,"rah":13328,"Ġovercome":13329,"Ġsubd":13330,"ĠPlat":13331,"Ġjoins":13332,"Ġharbor":13333,"Ġharvest":13334,"ĠWellington":13335,"mass":13336,"nam":13337,"ĠSyl":13338,"ĠMull":13339,"Ġclan":13340,"keley":13341,"Ġchapters":13342,"ĠSurrey":13343,"Ġproceeds":13344,"ĠAdelaide":13345,"ĠCe":13346,"Ġcultures":13347,"ĠChes":13348,"Ġphosph":13349,"Ġinsufficient":13350,"Ġ1866":13351,"ĠWoods":13352,"Ġdeclaration":13353,"OR":13354,"Ġexpense":13355,"ĠEssex":13356,"Ġmushroom":13357,"wig":13358,"ĠAlt":13359,"ĠSex":13360,"Ġslower":13361,"built":13362,"Ġsyndrome":13363,"ĠWant":13364,"ĠFather":13365,"Ġspores":13366,"Ġstrings":13367,"mitt":13368,"Ġwidow":13369,"produced":13370,"Japan":13371,"kinson":13372,"urers":13373,"this":13374,"ĠâĢ²":13375,"opsis":13376,"Ġsupporter":13377,"MD":13378,"Ġmachinery":13379,"Ġpanels":13380,"Ġhorizontal":13381,"agons":13382,"Ġassign":13383,"Ġcounsel":13384,"Ġinterviewed":13385,"clusive":13386,"Ġathletic":13387,"Ġgallery":13388,"ĠMachine":13389,"graduate":13390,"ainted":13391,"anto":13392,"ĠChoice":13393,"ĠShan":13394,"ĠMadrid":13395,"ĠTimber":13396,"Ġlocomotive":13397,"ĠShelley":13398,"king":13399,"oned":13400,"ĠLis":13401,"Ġimported":13402,"Ġcommentators":13403,"ĠButler":13404,"Ġmistake":13405,"arre":13406,"ĠPent":13407,"ĠInside":13408,"ikh":13409,"ĠCloud":13410,"ĠEllen":13411,"may":13412,"Ġthickness":13413,"occup":13414,"athetic":13415,"Ġgam":13416,"otilla":13417,"Ġrepaired":13418,"blem":13419,"Ġfights":13420,"Ġcustody":13421,"ĠUrban":13422,"Ġmolecules":13423,"ĠGonz":13424,"Ġproximity":13425,"NY":13426,"stration":13427,"ĠEC":13428,"ĠEagle":13429,"ĠMalay":13430,"Ġcircles":13431,"urop":13432,"Ġplum":13433,"Ġtactical":13434,"Ġgraphic":13435,"Paul":13436,"ÏĤ":13437,"ĠTotal":13438,"ĠFischer":13439,"Ġshaft":13440,"ĠChuck":13441,"ormal":13442,"Ġabst":13443,"Ġpolitically":13444,"Ġtradem":13445,"ĠAguil":13446,"Ġ1869":13447,"1997":13448,"ĠBosnia":13449,"Rober":13450,"Ġincl":13451,"ĠBass":13452,"Ġanx":13453,"Ġanthem":13454,"ĠLtd":13455,"Ġhunt":13456,"urbs":13457,"Ġstabil":13458,"Ġresur":13459,"Ġcurves":13460,"ĠÃī":13461,"Ġshopping":13462,"xide":13463,"Ġion":13464,"Ġcro":13465,"apa":13466,"Ġunaware":13467,"Ġsuccessive":13468,"ĠPublishing":13469,"Ġredesign":13470,"May":13471,"itects":13472,"imir":13473,"osity":13474,"Ġsharing":13475,"aceous":13476,"ebe":13477,"Ġrifle":13478,"dimensional":13479,"south":13480,"Ġmigration":13481,"Ġinterference":13482,"ĠAguilera":13483,"olves":13484,"Ġundergo":13485,"elfth":13486,"iary":13487,"ĠUB":13488,"tegr":13489,"ĠNewport":13490,"ĠZero":13491,"Ġengaging":13492,"Ġtermed":13493,"ungle":13494,"Ġacquire":13495,"Ġlinear":13496,"Meanwhile":13497,"Ġol":13498,"Ġseparately":13499,"Ġdiscussions":13500,"ĠPhillips":13501,"eria":13502,"chess":13503,"Ġtransit":13504,"Ġbitter":13505,"Ġfloors":13506,"zac":13507,"Ġduck":13508,"Ġlane":13509,"umar":13510,"Ġcurrency":13511,"ĠFerdinand":13512,"haul":13513,"anche":13514,"ĠBrew":13515,"ĠRange":13516,"ĠTrav":13517,"Ġbankrupt":13518,"ci":13519,"Ġfrog":13520,"Ġbol":13521,"ĠMeyer":13522,"Ġmodest":13523,"Ġmemories":13524,"Ġcontested":13525,"ĠEngineering":13526,"Ġmaneuver":13527,"King":13528,"Î½":13529,"Ġaviation":13530,"ĠMk":13531,"Ġallocated":13532,"Ġscrapped":13533,"Saxon":13534,"atri":13535,"Ġlip":13536,"ĠRPG":13537,"ĠKem":13538,"Ġstrange":13539,"Ġmissile":13540,"ĠCut":13541,"ĠComple":13542,"shi":13543,"Ġfarms":13544,"ĠAdmiralty":13545,"ĠRenaissance":13546,"press":13547,"Ġreef":13548,"ĠHil":13549,"Three":13550,"ĠRomans":13551,"istle":13552,"ĠHeath":13553,"Ġrulers":13554,"ĠSelena":13555,"dan":13556,"Ġhatch":13557,"Ġbeer":13558,"ĠRiley":13559,"Ġworker":13560,"ĠSpit":13561,"Ġadvances":13562,"Ġtwentieth":13563,"ĠNobel":13564,"Ġnomine":13565,"Ġenormous":13566,"Ġpuzz":13567,"ĠPsych":13568,"Ġnorthwestern":13569,"Ġdamages":13570,"ĠVienna":13571,"ĠLauren":13572,"ĠTasman":13573,"CD":13574,"nan":13575,"Ġgaming":13576,"ĠHond":13577,"ĠMovement":13578,"houses":13579,"ĠAviation":13580,"ĠAlpha":13581,"Ġcontinent":13582,"Ġdemanding":13583,"ĠTherefore":13584,"Ġphotographer":13585,"Ġpreliminary":13586,"Ġinterrupted":13587,"ĠBelie":13588,"Ġdemonstrate":13589,"Ġhalted":13590,"foundland":13591,"Ġcylind":13592,"ĠFlorence":13593,"Ġbills":13594,"Ġmail":13595,"Ġbrut":13596,"Ġhorsepower":13597,"Ġeditorial":13598,"Ġinstallation":13599,"ĠArkansas":13600,"ĠWool":13601,"ĠLeigh":13602,"Ġ1867":13603,"onnell":13604,"Ġreminiscent":13605,"sim":13606,"Ġgolf":13607,"Ġ104":13608,"Ġwashed":13609,"atha":13610,"Ġsongwriter":13611,"Ġgran":13612,"Born":13613,"Ġweld":13614,"ĠBreak":13615,"ĠPorts":13616,"Ġuprising":13617,"erving":13618,"Ġafford":13619,"ĠAbraham":13620,"ĠChandler":13621,"Ġdiscontinued":13622,"ĠSpencer":13623,"insp":13624,"Ġscreening":13625,"Ġneighbouring":13626,"ĠBengal":13627,"ĠHom":13628,"Ġregained":13629,"ramid":13630,"breaking":13631,"ĠOtto":13632,"Ġfare":13633,"Ġ\"'":13634,"Ġ1882":13635,"Ġdisputes":13636,"Ġfluid":13637,"ĠIdol":13638,"Ġabsolute":13639,"oths":13640,"ĠAdrian":13641,"ĠDaniels":13642,"rav":13643,"ĠBuch":13644,"ĠRNA":13645,"ĠFellow":13646,"ugu":13647,"Ġ1871":13648,"Ġultimate":13649,"Ġcomparable":13650,"ĠMLB":13651,"Ġtherapy":13652,"ĠBaldwin":13653,"ĠKerr":13654,"cycl":13655,"Ġtourism":13656,"Ġfluor":13657,"Ġsubsidi":13658,"AP":13659,"ĠMick":13660,"Ġally":13661,"ĠVolt":13662,"Ġpublish":13663,"ĠPerth":13664,"ĠRomania":13665,"\":":13666,"look":13667,"Ġunrest":13668,"2014":13669,"hang":13670,"opal":13671,"Ġcease":13672,"Ġzones":13673,"ĠTurks":13674,"inguished":13675,"Ġintelligent":13676,"birds":13677,"ĠWald":13678,"ĠGenesis":13679,"Ġcaptivity":13680,"Ġknowing":13681,"Ġmassacre":13682,"ĠGameSpot":13683,"nal":13684,"Ġinstruction":13685,"ĠBarrett":13686,"Ġ1873":13687,"ĠEllis":13688,"ĠFergus":13689,"Early":13690,"Ð°":13691,"Ġprojected":13692,"ĠNorse":13693,"Ġmasses":13694,"Ġaccomplish":13695,"isphere":13696,"AM":13697,"Rad":13698,"lew":13699,"Ġ101":13700,"lessly":13701,"ĠKnights":13702,"Ġdiscipline":13703,"ĠPlymouth":13704,"Ġcraf":13705,"Ġpaved":13706,"ĠHat":13707,"Ġtrick":13708,"ĠNewfoundland":13709,"Ġlessons":13710,"ĠBurger":13711,"Ġdeployment":13712,"Ġdelegation":13713,"Ġsew":13714,"ĠGhost":13715,"ĠStories":13716,"Ġprivately":13717,"Ġvolcano":13718,"ĠCircuit":13719,"iast":13720,"chief":13721,"abet":13722,"Ġcorridor":13723,"ervers":13724,"ĠAaron":13725,"ĠSenators":13726,"Per":13727,"yers":13728,"Ġnests":13729,"Ġstroke":13730,"ĠChase":13731,"Ġquit":13732,"ĠBeginning":13733,"Ġdelays":13734,"ĠKepler":13735,"Ġloaded":13736,"achelor":13737,"Ġibn":13738,"ĠPreston":13739,"nor":13740,"rates":13741,"Ġfinger":13742,"otus":13743,"ĠHancock":13744,"ĠFlanders":13745,"These":13746,"Ġsuburb":13747,"inae":13748,"Ġregardless":13749,"Ġsporting":13750,"ĠBot":13751,"uns":13752,"Ġanger":13753,"Ġopenly":13754,"Ġbusy":13755,"Ġ1878":13756,"Ġdescendants":13757,"good":13758,"Ġmim":13759,"ĠMounted":13760,"ectors":13761,"Ġbuff":13762,"ĠMcDonald":13763,"Ġsensitive":13764,"Ġfatalities":13765,"ĠLancaster":13766,"fin":13767,"ĠStore":13768,"elligence":13769,"ĠCu":13770,"Ġconting":13771,"Ġperf":13772,"ĠBlake":13773,"Ġchess":13774,"Ġ1872":13775,"Ġcontracted":13776,"ĠCurtis":13777,"ĠHum":13778,"achi":13779,"Ġprotecting":13780,"Ġplanes":13781,"ĠCapitol":13782,"ĠErn":13783,"elic":13784,"ĠMarx":13785,"Ġgenerals":13786,"ĠHenri":13787,"ĠCapital":13788,"Ġnecessarily":13789,"Ġcoalition":13790,"pur":13791,"zi":13792,"ocene":13793,"Ġteammates":13794,"ĠFlood":13795,"player":13796,"ficial":13797,"Ġdeclaring":13798,"ĠGeoffrey":13799,"opular":13800,"ĠStage":13801,"Ġrapper":13802,"ĠGarc":13803,"Due":13804,"Prior":13805,"Ã£o":13806,"Ġeject":13807,"Ġoutdoor":13808,"ĠHous":13809,"ĠJen":13810,"Ġraw":13811,"ĠLeban":13812,"Ġediting":13813,"ĠOrthodox":13814,"Ġcollision":13815,"ĠSax":13816,"eli":13817,"avour":13818,"Ġproud":13819,"Ġshops":13820,"Ġlava":13821,"ĠBent":13822,"Ġgains":13823,"Ġgamb":13824,"ĠBarn":13825,"Ġfarming":13826,"Ġseemingly":13827,"Ġdescended":13828,"ĠAdventures":13829,"Throughout":13830,"ML":13831,"tailed":13832,"isans":13833,"ilia":13834,"ĠMobile":13835,"ĠMaxwell":13836,"Ġcooperation":13837,"lies":13838,"adian":13839,"Ġunemploy":13840,"Ġdisgu":13841,"ĠScreen":13842,"Ġrealizes":13843,"Ġsymmet":13844,"ĠElectronic":13845,"Ġmembr":13846,"ĠHerman":13847,"ĠMotor":13848,"fold":13849,"entric":13850,"orman":13851,"ĠAllmusic":13852,"Ġhonours":13853,"yright":13854,"Ġironcl":13855,"ĠMarcus":13856,"Between":13857,"ĠReading":13858,"Ġgrain":13859,"ĠEdmonton":13860,"Ġstorylines":13861,"Both":13862,"ovo":13863,"ĠReyn":13864,"elfare":13865,"Ġcreates":13866,"1998":13867,"ĠArchae":13868,"ĠFemale":13869,"Ġtrophy":13870,"ĠPrison":13871,"ĠWings":13872,"ĠKub":13873,"Ġdecomp":13874,"Ġdeveloper":13875,"Ġfindings":13876,"Ġdeeper":13877,"Ġkitchen":13878,"Ġ91":13879,"Ġoperator":13880,"Ġsixty":13881,"ĠSkinner":13882,"Ġdawn":13883,"ayette":13884,"ĠWrest":13885,"Short":13886,"Ġeliminate":13887,"Ġprohibited":13888,"Ġgenerate":13889,"Ġoperas":13890,"orge":13891,"ĠCrom":13892,"ĠEsp":13893,"ĠKens":13894,"letcher":13895,"Ġrecognize":13896,"Ġcitizen":13897,"holm":13898,"Ġcabin":13899,"Ġaggregate":13900,"ĠProductions":13901,"GS":13902,"Let":13903,"Ġlicensed":13904,"Ġpregnancy":13905,"Ġgathering":13906,"ding":13907,"zo":13908,"Ġgreet":13909,"ĠRams":13910,"ĠThom":13911,"Ġjoke":13912,"Ġminim":13913,"Ġedges":13914,"ĠPlaza":13915,"ĠFormer":13916,"Ġmerchants":13917,"ĠMotion":13918,"Ġsurfaces":13919,"Ġconjunction":13920,"Ġauction":13921,"Ġlux":13922,"Ġgauge":13923,"legiate":13924,"ĠCommissioner":13925,"Ġproceedings":13926,"Ġnicknamed":13927,"ĠHamb":13928,"ĠLie":13929,"ibl":13930,"Ġdisappear":13931,"ĠRelations":13932,"irs":13933,"quarter":13934,"Ġregist":13935,"Ġkeen":13936,"Ġsurprising":13937,"Ġscenario":13938,"hurst":13939,"ĠLogan":13940,"Ġambit":13941,"ophical":13942,"ĠMetal":13943,"Ġacquisition":13944,"Ġruins":13945,"Ġdecomm":13946,"Ġrestaurants":13947,"ĠCurrent":13948,"ĠGy":13949,"istically":13950,"ĠParachute":13951,"Ġstruggling":13952,"ĠSurv":13953,"Ġadaptations":13954,"brook":13955,"ĠNashville":13956,"Ġ900":13957,"Ġopted":13958,"imensions":13959,"Ġatmospheric":13960,"anan":13961,"ĠSierra":13962,"ĠBron":13963,"ĠHait":13964,"Ġgrants":13965,"Ġcream":13966,"ĠProtection":13967,"Ġsteady":13968,"Ġadministered":13969,"arms":13970,"Ġmotorway":13971,"pounder":13972,"Ġchances":13973,"ĠOnline":13974,"Ġmutual":13975,"ĠSr":13976,"ĠTrue":13977,"Ġprogression":13978,"Ġfreed":13979,"Ġdraws":13980,"ĠPanama":13981,"Ġstreams":13982,"Ġoak":13983,"ĠMang":13984,"Ġinvented":13985,"Ġexperts":13986,"Ġpackage":13987,"Ġlobby":13988,"Ġnineteenth":13989,"Ġreversed":13990,"Co":13991,"taining":13992,"ĠKes":13993,"Ġtrigg":13994,"ĠDevon":13995,"Ġfatal":13996,"Ġstrengthen":13997,"Ġfestivals":13998,"horn":13999,"uine":14000,"Ġdug":14001,"speed":14002,"ĠMinogue":14003,"ĠKoreans":14004,"ĠArchitect":14005,"ĠBuddhist":14006,"Ġveterans":14007,"Ġcaution":14008,"ĠBrigadier":14009,"rozen":14010,"Ġperpet":14011,"Ġpostpon":14012,"ĠPalmer":14013,"Ġtunnels":14014,"ĠKer":14015,"Ġclay":14016,"ĠSpy":14017,"Ġ1868":14018,"ĠUsher":14019,"speaking":14020,"Ġtennis":14021,"ushes":14022,"Ġlifestyle":14023,"Ġroller":14024,"drop":14025,"gs":14026,"lay":14027,"ĠTall":14028,"ĠCool":14029,"Ġmodes":14030,"Ġincorporates":14031,"ĠIndustrial":14032,"Ġsketch":14033,"Å¾":14034,"ivic":14035,"ĠWa":14036,"ĠOw":14037,"ikes":14038,"uchi":14039,"Ġspeeches":14040,"Ġdemonstration":14041,"ĠCombat":14042,"bours":14043,"Ġdors":14044,"olades":14045,"ovich":14046,"ĠManning":14047,"Ġriff":14048,"Ġjumping":14049,"ĠËĪ":14050,"Ġmuzzle":14051,"Ġtopic":14052,"Ġerosion":14053,"ipping":14054,"ĠMoz":14055,"Ġfloods":14056,"Ġworried":14057,"ĠBast":14058,"ĠHeaven":14059,"Ġsubstance":14060,"ĠCarn":14061,"Ġdelight":14062,"Ġnights":14063,"ĠResident":14064,"ĠStrong":14065,"Ġplutonium":14066,"Ġsecular":14067,"Ġsubsc":14068,"ĠGran":14069,"ĠÂµ":14070,"ĠArmenia":14071,"Day":14072,"Ġtum":14073,"Ġhur":14074,"Ġhiding":14075,"ĠSuz":14076,"Ġshar":14077,"Ġparam":14078,"ĠSenior":14079,"1995":14080,"ymn":14081,"Ġfunctional":14082,"Ġaf":14083,"anti":14084,"antom":14085,"Ġauthentic":14086,"Ġincomplete":14087,"Ġpine":14088,"Ġnam":14089,"Ġreserved":14090,"Ġmodifications":14091,"ĠFormula":14092,"Ġdynamic":14093,"Ġsufficiently":14094,"ĠTask":14095,"ĠNav":14096,"asting":14097,"Ġoverth":14098,"Ġamendment":14099,"ĠGuatem":14100,"Ġputs":14101,"uxili":14102,"Ġprosecut":14103,"Ġpedest":14104,"Ġfir":14105,"adows":14106,"ĠPale":14107,"ĠJunction":14108,"Ġresort":14109,"Ġcentres":14110,"Ġassessed":14111,"ĠConsequently":14112,"Ġtransc":14113,"Ġflee":14114,"ĠMaxim":14115,"ĠUsing":14116,"ĠLynch":14117,"ĠDrama":14118,"ĠOri":14119,"Ġinternet":14120,"Ġerrors":14121,
[...]
